<pad>	0
<unk>	0
<bos>	0
<eos>	0
he	-0
▁t	-1
▁a	-2
▁s	-3
▁w	-4
nd	-5
▁the	-6
ed	-7
▁and	-8
▁to	-9
▁b	-10
in	-11
▁h	-12
▁wa	-13
re	-14
ou	-15
▁f	-16
it	-17
▁T	-18
▁l	-19
▁c	-20
▁d	-21
er	-22
▁he	-23
▁m	-24
▁p	-25
▁was	-26
om	-27
▁o	-28
▁The	-29
ay	-30
ar	-31
is	-32
ing	-33
il	-34
▁g	-35
id	-36
▁S	-37
at	-38
en	-39
▁n	-40
▁sa	-41
▁ha	-42
an	-43
im	-44
or	-45
on	-46
▁it	-47
▁H	-48
▁th	-49
ll	-50
▁"	-51
le	-52
ot	-53
▁She	-54
▁her	-55
et	-56
ir	-57
▁He	-58
▁They	-59
es	-60
▁in	-61
ver	-62
ut	-63
ow	-64
▁L	-65
ck	-66
▁e	-67
▁u	-68
▁y	-69
ld	-70
oo	-71
ily	-72
▁said	-73
ig	-74
▁r	-75
▁I	-76
▁be	-77
am	-78
▁st	-79
ke	-80
ce	-81
ve	-82
ith	-83
pp	-84
▁she	-85
▁with	-86
▁Lily	-87
▁O	-88
▁on	-89
▁On	-90
▁you	-91
ked	-92
▁of	-93
ri	-94
▁B	-95
▁pl	-96
nt	-97
▁his	-98
ad	-99
▁so	-100
very	-101
▁day	-102
▁that	-103
▁up	-104
▁play	-105
▁had	-106
▁they	-107
st	-108
▁we	-109
▁mom	-110
▁M	-111
▁for	-112
el	-113
un	-114
ould	-115
my	-116
▁li	-117
ch	-118
▁happ	-119
▁want	-120
ent	-121
▁sh	-122
itt	-123
her	-124
out	-125
▁not	-126
▁do	-127
ome	-128
se	-129
▁very	-130
ly	-131
end	-132
ound	-133
all	-134
▁wh	-135
▁k	-136
ime	-137
ittle	-138
▁time	-139
al	-140
▁A	-141
▁little	-142
▁ne	-143
▁there	-144
ht	-145
▁It	-146
▁is	-147
▁happy	-148
▁big	-149
▁re	-150
▁sm	-151
▁but	-152
▁saw	-153
▁an	-154
ra	-155
ry	-156
riend	-157
."	-158
▁friend	-159
▁as	-160
ack	-161
ide	-162
ake	-163
▁One	-164
ug	-165
▁Tim	-166
!"	-167
▁loo	-168
▁were	-169
ter	-170
ved	-171
▁lo	-172
ore	-173
▁Once	-174
▁se	-175
▁too	-176
▁J	-177
▁him	-178
▁bo	-179
▁go	-180
▁are	-181
ec	-182
▁j	-183
▁wanted	-184
ard	-185
irl	-186
ill	-187
▁Tom	-188
▁them	-189
▁Ben	-190
▁upon	-191
▁girl	-192
▁their	-193
▁out	-194
▁at	-195
ind	-196
ur	-197
▁did	-198
way	-199
fu	-200
▁sp	-201
▁could	-202
▁smil	-203
hen	-204
▁have	-205
ain	-206
hed	-207
art	-208
rom	-209
▁ex	-210
▁can	-211
▁went	-212
ic	-213
▁ar	-214
▁W	-215
lp	-216
ood	-217
ful	-218
▁But	-219
▁friends	-220
?"	-221
▁nam	-222
hing	-223
▁kn	-224
ight	-225
▁help	-226
▁say	-227
▁all	-228
one	-229
um	-230
ark	-231
▁back	-232
You	-233
▁fun	-234
▁cl	-235
are	-236
▁no	-237
▁le	-238
▁Timmy	-239
op	-240
▁sc	-241
▁named	-242
▁al	-243
elt	-244
oug	-245
▁man	-246
▁loved	-247
side	-248
▁smiled	-249
▁toy	-250
▁like	-251
ick	-252
▁felt	-253
▁asked	-254
▁fe	-255
▁some	-256
▁see	-257
▁looked	-258
▁me	-259
ame	-260
▁around	-261
▁ro	-262
omet	-263
ure	-264
▁br	-265
▁bir	-266
get	-267
ice	-268
▁boy	-269
▁would	-270
ong	-271
▁start	-272
as	-273
▁bird	-274
▁somet	-275
ings	-276
▁fa	-277
ade	-278
▁make	-279
▁ag	-280
▁what	-281
▁wor	-282
▁Mom	-283
▁You	-284
dd	-285
,"	-286
▁says	-287
king	-288
▁away	-289
▁ran	-290
own	-291
gether	-292
▁tre	-293
ag	-294
ared	-295
ie	-296
oud	-297
▁made	-298
▁started	-299
if	-300
▁car	-301
▁together	-302
▁something	-303
▁co	-304
ther	-305
▁park	-306
▁sad	-307
▁other	-308
ited	-309
▁put	-310
▁new	-311
▁from	-312
ell	-313
▁hug	-314
▁E	-315
▁pr	-316
ble	-317
▁again	-318
ook	-319
▁exc	-320
ach	-321
▁good	-322
▁home	-323
▁la	-324
▁mu	-325
▁F	-326
ss	-327
▁when	-328
▁fl	-329
ried	-330
ep	-331
▁who	-332
est	-333
▁then	-334
▁found	-335
▁ch	-336
▁dec	-337
pped	-338
hat	-339
▁get	-340
▁wal	-341
▁playing	-342
qu	-343
▁sw	-344
ought	-345
nn	-346
▁D	-347
▁liked	-348
uck	-349
▁things	-350
▁Sam	-351
ally	-352
pl	-353
ous	-354
▁Su	-355
▁got	-356
▁bl	-357
▁excited	-358
ro	-359
ided	-360
ave	-361
▁came	-362
ara	-363
▁every	-364
▁decided	-365
▁your	-366
▁Ann	-367
▁dog	-368
ax	-369
▁scared	-370
▁one	-371
▁down	-372
ust	-373
▁v	-374
▁find	-375
▁care	-376
ouse	-377
ap	-378
▁bec	-379
ist	-380
▁than	-381
▁Sara	-382
ny	-383
▁feel	-384
▁Anna	-385
▁dad	-386
▁ab	-387
▁will	-388
▁my	-389
arn	-390
▁look	-391
our	-392
▁gr	-393
▁Max	-394
ers	-395
▁ke	-396
▁gra	-397
▁didn	-398
ways	-399
ess	-400
▁po	-401
▁toys	-402
▁took	-403
fe	-404
nder	-405
▁about	-406
▁ball	-407
▁always	-408
▁lot	-409
▁mommy	-410
ant	-411
▁kne	-412
bb	-413
▁bu	-414
▁tree	-415
ise	-416
▁outside	-417
▁thought	-418
ite	-419
▁more	-420
▁ta	-421
▁So	-422
ened	-423
▁learn	-424
ret	-425
▁ho	-426
ched	-427
▁know	-428
eci	-429
▁pu	-430
▁int	-431
ged	-432
▁sor	-433
▁When	-434
▁cat	-435
▁laug	-436
▁take	-437
▁old	-438
ive	-439
ia	-440
▁speci	-441
▁special	-442
▁knew	-443
▁any	-444
▁pe	-445
▁Her	-446
▁Jo	-447
dden	-448
fter	-449
au	-450
▁how	-451
▁sorry	-452
▁tr	-453
ma	-454
ink	-455
▁show	-456
ish	-457
ddenly	-458
▁run	-459
▁sl	-460
▁much	-461
▁tw	-462
▁hand	-463
▁Every	-464
and	-465
▁or	-466
▁house	-467
▁Jack	-468
▁op	-469
▁mo	-470
▁water	-471
ven	-472
▁sk	-473
▁tried	-474
▁into	-475
▁sun	-476
ank	-477
▁inside	-478
▁clo	-479
ate	-480
▁told	-481
▁gave	-482
ump	-483
ty	-484
▁proud	-485
▁each	-486
▁qu	-487
▁en	-488
▁We	-489
▁if	-490
▁over	-491
▁room	-492
▁couldn	-493
▁heard	-494
here	-495
ace	-496
▁never	-497
▁eat	-498
▁Mia	-499
▁this	-500
▁pret	-501
other	-502
dy	-503
ause	-504
by	-505
ak	-506
▁played	-507
▁pick	-508
ion	-509
sed	-510
etter	-511
▁hugged	-512
▁expl	-513
ge	-514
▁Suddenly	-515
▁Then	-516
▁com	-517
▁gre	-518
▁just	-519
▁nice	-520
▁box	-521
▁From	-522
▁many	-523
▁need	-524
▁wat	-525
oth	-526
▁str	-527
▁because	-528
▁off	-529
▁And	-530
ue	-531
ile	-532
gry	-533
▁small	-534
iz	-535
▁His	-536
ving	-537
▁long	-538
▁jo	-539
▁sn	-540
ine	-541
▁fo	-542
imal	-543
▁animal	-544
▁bear	-545
▁try	-546
ough	-547
uc	-548
ort	-549
urt	-550
▁learned	-551
▁unt	-552
sel	-553
ild	-554
▁love	-555
▁until	-556
▁C	-557
▁kind	-558
ft	-559
▁better	-560
▁flow	-561
▁end	-562
▁te	-563
▁im	-564
urn	-565
▁don	-566
ves	-567
▁cle	-568
▁call	-569
▁best	-570
ady	-571
ars	-572
ream	-573
aut	-574
▁ad	-575
Yes	-576
vent	-577
▁fast	-578
▁careful	-579
urp	-580
arden	-581
▁garden	-582
▁beaut	-583
▁fi	-584
▁cu	-585
ber	-586
▁sky	-587
▁thanked	-588
▁bra	-589
▁jump	-590
▁even	-591
▁loud	-592
ies	-593
ase	-594
pt	-595
▁by	-596
▁laughed	-597
em	-598
▁che	-599
▁â	-600
iny	-601
wn	-602
self	-603
Th	-604
lly	-605
▁gl	-606
▁list	-607
▁come	-608
▁beauti	-609
▁hard	-610
▁still	-611
▁hurt	-612
lew	-613
▁beautiful	-614
▁animals	-615
▁lots	-616
▁fam	-617
▁way	-618
▁wo	-619
▁ra	-620
▁under	-621
hes	-622
▁let	-623
▁P	-624
▁stay	-625
be	-626
ect	-627
▁bad	-628
ning	-629
ct	-630
▁safe	-631
sh	-632
▁col	-633
ool	-634
ast	-635
▁both	-636
ople	-637
ock	-638
▁Joh	-639
kay	-640
▁rem	-641
▁book	-642
▁angry	-643
▁lived	-644
ished	-645
▁its	-646
▁imp	-647
▁As	-648
ree	-649
ress	-650
▁two	-651
It	-652
▁people	-653
ane	-654
▁brave	-655
▁family	-656
▁should	-657
No	-658
▁red	-659
urpr	-660
igh	-661
▁After	-662
▁walked	-663
▁su	-664
▁surpr	-665
▁flew	-666
▁fin	-667
▁stor	-668
▁share	-669
▁dan	-670
▁soon	-671
ucy	-672
▁fly	-673
▁Lucy	-674
ob	-675
xt	-676
▁pic	-677
▁doll	-678
led	-679
▁kept	-680
fore	-681
▁called	-682
ip	-683
▁fore	-684
▁rock	-685
Let	-686
▁clean	-687
▁pretty	-688
ised	-689
▁door	-690
dded	-691
▁shiny	-692
▁G	-693
▁going	-694
▁keep	-695
▁Mommy	-696
▁dra	-697
▁noise	-698
▁now	-699
▁real	-700
▁wind	-701
▁Dad	-702
▁opened	-703
▁John	-704
▁advent	-705
▁turn	-706
▁ide	-707
ummy	-708
ary	-709
so	-710
▁cry	-711
▁before	-712
▁con	-713
age	-714
▁ground	-715
▁also	-716
▁sto	-717
les	-718
illy	-719
▁ey	-720
▁color	-721
▁explore	-722
ied	-723
▁far	-724
▁has	-725
▁idea	-726
▁fr	-727
▁Sp	-728
kes	-729
imb	-730
▁war	-731
th	-732
ture	-733
▁un	-734
What	-735
thing	-736
▁next	-737
▁picked	-738
▁climb	-739
▁nodded	-740
aybe	-741
▁smile	-742
▁thr	-743
oy	-744
▁feeling	-745
▁truck	-746
▁while	-747
▁bed	-748
▁Bob	-749
▁walking	-750
TM	-751
eet	-752
▁wr	-753
▁adventure	-754
ger	-755
Thank	-756
▁picture	-757
ac	-758
▁being	-759
▁think	-760
▁give	-761
▁food	-762
▁ma	-763
ff	-764
iced	-765
▁tra	-766
▁dif	-767
That	-768
▁bre	-769
joy	-770
▁bro	-771
ted	-772
▁tow	-773
ious	-774
▁listen	-775
▁clos	-776
▁eyes	-777
▁N	-778
▁wait	-779
ught	-780
▁own	-781
▁fish	-782
▁stopped	-783
▁after	-784
▁looking	-785
ting	-786
▁flowers	-787
▁Spot	-788
ember	-789
▁del	-790
▁walk	-791
▁Sue	-792
▁hands	-793
▁blue	-794
ized	-795
▁slide	-796
▁shout	-797
▁repl	-798
▁great	-799
▁ever	-800
▁mean	-801
▁enjoy	-802
▁vo	-803
▁head	-804
irst	-805
ila	-806
oon	-807
▁rain	-808
▁near	-809
▁noticed	-810
▁forest	-811
▁dis	-812
▁us	-813
▁ask	-814
▁quick	-815
▁import	-816
▁remember	-817
bbit	-818
▁sound	-819
▁app	-820
llow	-821
▁okay	-822
▁de	-823
maz	-824
▁work	-825
▁showed	-826
▁wonder	-827
▁ru	-828
▁amaz	-829
▁tal	-830
lease	-831
▁stick	-832
▁tou	-833
▁watch	-834
▁important	-835
bbed	-836
bye	-837
▁strong	-838
We	-839
gan	-840
▁ac	-841
▁everyone	-842
▁bright	-843
day	-844
fere	-845
▁rabbit	-846
▁boat	-847
▁differe	-848
▁our	-849
▁replied	-850
▁squ	-851
▁right	-852
▁where	-853
▁follow	-854
▁use	-855
▁does	-856
co	-857
▁watched	-858
able	-859
▁hop	-860
▁yell	-861
▁face	-862
ath	-863
▁mor	-864
▁quickly	-865
Look	-866
ered	-867
▁store	-868
▁dress	-869
▁Lila	-870
▁sure	-871
▁became	-872
▁been	-873
▁Th	-874
ange	-875
▁place	-876
ng	-877
▁Sarah	-878
▁different	-879
▁child	-880
▁curi	-881
aught	-882
▁warm	-883
▁ye	-884
▁goodbye	-885
▁am	-886
▁mag	-887
▁high	-888
▁voice	-889
▁Jane	-890
▁forg	-891
▁tell	-892
▁block	-893
more	-894
▁cake	-895
leep	-896
▁anymore	-897
ndma	-898
▁closer	-899
▁cook	-900
▁curious	-901
itc	-902
▁fav	-903
▁bel	-904
ount	-905
▁night	-906
▁pull	-907
▁open	-908
ey	-909
ired	-910
imes	-911
▁lea	-912
ached	-913
▁first	-914
▁pain	-915
iss	-916
▁z	-917
▁butter	-918
▁here	-919
▁fell	-920
▁kid	-921
ull	-922
▁grabbed	-923
▁sees	-924
Can	-925
unny	-926
▁sweet	-927
orn	-928
▁only	-929
▁flo	-930
itchen	-931
▁kitchen	-932
▁three	-933
▁Everyone	-934
▁sand	-935
▁In	-936
▁helped	-937
▁birds	-938
▁stop	-939
▁dr	-940
▁cont	-941
▁cra	-942
▁bit	-943
▁ba	-944
▁jumped	-945
▁happened	-946
▁glad	-947
▁fire	-948
▁mon	-949
ppy	-950
▁That	-951
▁sing	-952
▁beh	-953
▁grass	-954
▁tri	-955
▁Do	-956
▁per	-957
▁cr	-958
▁brother	-959
▁realized	-960
isy	-961
▁story	-962
▁shouted	-963
air	-964
▁reached	-965
▁mess	-966
▁soft	-967
▁Let	-968
akes	-969
ass	-970
▁yummy	-971
▁lady	-972
▁game	-973
ins	-974
▁having	-975
nts	-976
Mom	-977
▁draw	-978
▁ate	-979
▁hat	-980
▁prin	-981
▁pretend	-982
zy	-983
▁pap	-984
▁through	-985
▁favor	-986
▁underst	-987
where	-988
▁cre	-989
▁less	-990
▁rest	-991
▁favorite	-992
▁ready	-993
ater	-994
▁thing	-995
▁looks	-996
ken	-997
▁making	-998
▁Can	-999
ather	-1000
▁kids	-1001
▁magic	-1002
▁Joe	-1003
▁really	-1004
▁duck	-1005
▁pare	-1006
▁tired	-1007
▁pond	-1008
▁fix	-1009
▁cars	-1010
▁cut	-1011
▁world	-1012
▁Tommy	-1013
Wow	-1014
▁done	-1015
▁began	-1016
▁mum	-1017
▁bunny	-1018
▁waved	-1019
bo	-1020
▁himself	-1021
▁catch	-1022
▁butterf	-1023
▁coming	-1024
▁touch	-1025
▁funny	-1026
▁cried	-1027
▁used	-1028
fully	-1029
▁worry	-1030
▁part	-1031
▁Fin	-1032
▁why	-1033
▁prom	-1034
▁name	-1035
ign	-1036
▁another	-1037
▁blocks	-1038
▁fill	-1039
▁ste	-1040
▁flower	-1041
▁hold	-1042
▁fro	-1043
▁hair	-1044
▁tast	-1045
▁top	-1046
▁seen	-1047
▁cool	-1048
ster	-1049
oney	-1050
▁swim	-1051
rel	-1052
▁wished	-1053
eddy	-1054
iver	-1055
▁thank	-1056
▁mouse	-1057
▁floor	-1058
▁green	-1059
▁light	-1060
▁bag	-1061
ient	-1062
▁delic	-1063
▁gi	-1064
▁likes	-1065
▁paper	-1066
▁smell	-1067
▁farm	-1068
▁parents	-1069
▁behind	-1070
▁Sally	-1071
ation	-1072
hy	-1073
▁lesson	-1074
▁dri	-1075
olly	-1076
▁surprise	-1077
▁doing	-1078
Don	-1079
▁hopped	-1080
▁dro	-1081
▁bow	-1082
▁sleep	-1083
▁worked	-1084
▁hole	-1085
ards	-1086
▁window	-1087
uff	-1088
andy	-1089
▁yellow	-1090
▁read	-1091
▁trees	-1092
▁dark	-1093
▁din	-1094
▁full	-1095
▁sho	-1096
▁laugh	-1097
▁running	-1098
aisy	-1099
ued	-1100
ike	-1101
ely	-1102
▁Benny	-1103
▁cold	-1104
ren	-1105
▁swing	-1106
rew	-1107
▁sat	-1108
▁spot	-1109
▁wood	-1110
".	-1111
us	-1112
▁surprised	-1113
ul	-1114
▁slow	-1115
▁remembered	-1116
aring	-1117
▁-	-1118
▁butterfly	-1119
▁happily	-1120
▁set	-1121
▁lost	-1122
▁needed	-1123
ons	-1124
▁years	-1125
▁ice	-1126
▁held	-1127
▁buy	-1128
Hell	-1129
Hello	-1130
▁move	-1131
▁frog	-1132
▁anything	-1133
▁At	-1134
▁carefully	-1135
▁wrong	-1136
▁snow	-1137
▁hear	-1138
▁Em	-1139
▁left	-1140
▁tall	-1141
▁There	-1142
▁hun	-1143
ens	-1144
▁perf	-1145
▁dir	-1146
▁dream	-1147
▁fair	-1148
▁followed	-1149
▁Now	-1150
▁air	-1151
▁enjoyed	-1152
TMs	-1153
▁Billy	-1154
▁el	-1155
▁finished	-1156
▁cast	-1157
▁children	-1158
▁Jim	-1159
cess	-1160
▁bug	-1161
▁books	-1162
▁table	-1163
▁hot	-1164
▁Finally	-1165
▁Daisy	-1166
ined	-1167
▁herself	-1168
▁To	-1169
▁hill	-1170
▁hid	-1171
▁bus	-1172
reed	-1173
▁Jen	-1174
▁arri	-1175
▁friendly	-1176
▁understand	-1177
ds	-1178
▁arm	-1179
▁contin	-1180
▁Gra	-1181
▁close	-1182
▁please	-1183
▁forgot	-1184
ross	-1185
▁might	-1186
▁colors	-1187
▁else	-1188
▁delicious	-1189
▁broken	-1190
▁build	-1191
▁wants	-1192
asure	-1193
▁rel	-1194
sp	-1195
lf	-1196
ash	-1197
▁gone	-1198
ield	-1199
▁gent	-1200
▁baby	-1201
room	-1202
atter	-1203
▁arrived	-1204
▁creat	-1205
▁tight	-1206
▁able	-1207
▁leaves	-1208
▁song	-1209
▁wonderful	-1210
▁someone	-1211
▁yes	-1212
▁wall	-1213
▁Molly	-1214
▁squir	-1215
ner	-1216
▁filled	-1217
av	-1218
▁This	-1219
▁gu	-1220
▁continued	-1221
ich	-1222
ask	-1223
▁lion	-1224
▁count	-1225
▁break	-1226
▁squirrel	-1227
▁Amy	-1228
▁agreed	-1229
▁ju	-1230
▁pink	-1231
▁Maybe	-1232
▁scary	-1233
▁poin	-1234
▁fall	-1235
▁enough	-1236
shed	-1237
▁castle	-1238
ee	-1239
icy	-1240
ries	-1241
man	-1242
▁grandma	-1243
▁vis	-1244
▁stayed	-1245
▁hungry	-1246
▁makes	-1247
▁moment	-1248
▁morning	-1249
▁smiles	-1250
▁finally	-1251
▁wet	-1252
▁fight	-1253
▁comp	-1254
▁cookies	-1255
▁getting	-1256
oup	-1257
▁turned	-1258
▁sometimes	-1259
gon	-1260
app	-1261
row	-1262
▁pictures	-1263
▁pi	-1264
▁talk	-1265
▁beach	-1266
rot	-1267
▁cream	-1268
ama	-1269
▁climbed	-1270
▁What	-1271
▁others	-1272
▁trying	-1273
▁clot	-1274
▁balloon	-1275
▁listened	-1276
oom	-1277
▁dinner	-1278
▁amazing	-1279
▁tail	-1280
▁clothes	-1281
ced	-1282
▁mus	-1283
ere	-1284
▁few	-1285
ance	-1286
apped	-1287
▁mar	-1288
▁met	-1289
▁puppy	-1290
lc	-1291
▁mother	-1292
ence	-1293
▁Jill	-1294
▁daddy	-1295
▁perfect	-1296
oring	-1297
amp	-1298
▁spl	-1299
▁asks	-1300
▁white	-1301
key	-1302
▁fur	-1303
red	-1304
▁alone	-1305
ctor	-1306
uffy	-1307
▁pet	-1308
▁sail	-1309
▁wasn	-1310
ucky	-1311
▁sit	-1312
▁brought	-1313
▁everything	-1314
▁sear	-1315
ister	-1316
▁pol	-1317
der	-1318
▁joy	-1319
▁grow	-1320
ott	-1321
▁strange	-1322
▁roll	-1323
▁pulled	-1324
ated	-1325
▁waited	-1326
▁pie	-1327
wl	-1328
Oh	-1329
▁deep	-1330
▁spark	-1331
▁ride	-1332
▁danger	-1333
▁woods	-1334
But	-1335
▁plan	-1336
▁won	-1337
▁runs	-1338
▁leave	-1339
▁music	-1340
me	-1341
▁amazed	-1342
▁thinks	-1343
▁visit	-1344
This	-1345
zz	-1346
ower	-1347
▁hide	-1348
ang	-1349
▁teddy	-1350
▁cloud	-1351
eter	-1352
▁Soon	-1353
Maybe	-1354
▁fox	-1355
▁pat	-1356
ever	-1357
▁pen	-1358
os	-1359
▁silly	-1360
ugg	-1361
▁living	-1362
▁flying	-1363
ope	-1364
▁shap	-1365
▁em	-1366
▁towards	-1367
gs	-1368
▁treat	-1369
▁owner	-1370
med	-1371
ames	-1372
ises	-1373
▁All	-1374
thy	-1375
▁pre	-1376
▁side	-1377
▁land	-1378
▁grate	-1379
▁field	-1380
▁lake	-1381
ained	-1382
▁shared	-1383
▁qui	-1384
▁money	-1385
▁paint	-1386
cket	-1387
igg	-1388
▁faster	-1389
▁party	-1390
▁promised	-1391
▁grateful	-1392
▁belie	-1393
▁sister	-1394
▁dance	-1395
▁bott	-1396
Okay	-1397
avy	-1398
▁race	-1399
▁moral	-1400
eces	-1401
ix	-1402
▁cup	-1403
cle	-1404
▁treasure	-1405
▁broke	-1406
▁pieces	-1407
▁Fl	-1408
▁job	-1409
▁candy	-1410
▁quiet	-1411
▁worried	-1412
unch	-1413
▁blank	-1414
▁colorful	-1415
sw	-1416
▁train	-1417
ze	-1418
▁bran	-1419
▁bigger	-1420
▁answ	-1421
▁slowly	-1422
orm	-1423
▁Daddy	-1424
▁wear	-1425
outh	-1426
▁gif	-1427
▁dolls	-1428
▁welc	-1429
ually	-1430
▁blanket	-1431
▁reach	-1432
▁mouth	-1433
ling	-1434
▁must	-1435
▁ve	-1436
uit	-1437
▁snack	-1438
▁Mr	-1439
ol	-1440
▁such	-1441
▁Mama	-1442
▁cho	-1443
fort	-1444
▁bike	-1445
▁everywhere	-1446
▁ele	-1447
▁smart	-1448
ased	-1449
▁scream	-1450
▁pro	-1451
▁black	-1452
less	-1453
ph	-1454
▁river	-1455
ire	-1456
▁nap	-1457
▁plant	-1458
▁bar	-1459
▁join	-1460
▁stu	-1461
▁magical	-1462
▁je	-1463
▁pot	-1464
▁sign	-1465
▁princess	-1466
▁dangerous	-1467
▁helping	-1468
▁Just	-1469
▁win	-1470
▁pa	-1471
cked	-1472
set	-1473
▁threw	-1474
▁dirty	-1475
ming	-1476
▁carrot	-1477
▁Mary	-1478
▁twins	-1479
▁bowl	-1480
▁dragon	-1481
▁crying	-1482
▁tower	-1483
ipped	-1484
▁bite	-1485
▁doctor	-1486
▁hoped	-1487
ored	-1488
Sure	-1489
▁most	-1490
▁teac	-1491
ident	-1492
▁farmer	-1493
▁same	-1494
▁spr	-1495
▁heavy	-1496
▁bee	-1497
▁monster	-1498
▁words	-1499
▁acc	-1500
▁monkey	-1501
bble	-1502
ear	-1503
de	-1504
▁heal	-1505
▁across	-1506
▁coll	-1507
▁bath	-1508
Why	-1509
▁disapp	-1510
Hi	-1511
▁hig	-1512
▁buck	-1513
The	-1514
▁fruit	-1515
▁stepped	-1516
▁stre	-1517
▁closed	-1518
▁stuck	-1519
eared	-1520
▁heart	-1521
▁town	-1522
Mommy	-1523
▁feels	-1524
▁Grandma	-1525
chool	-1526
▁believe	-1527
▁wouldn	-1528
asket	-1529
▁basket	-1530
▁mix	-1531
▁teacher	-1532
▁cray	-1533
▁cour	-1534
▁att	-1535
▁butt	-1536
▁eating	-1537
▁hit	-1538
▁school	-1539
▁Emma	-1540
iting	-1541
▁chair	-1542
▁pushed	-1543
▁brown	-1544
▁yard	-1545
TMt	-1546
▁gentle	-1547
▁pack	-1548
▁min	-1549
▁course	-1550
▁neigh	-1551
▁without	-1552
br	-1553
▁clapped	-1554
issed	-1555
ord	-1556
▁Mum	-1557
ts	-1558
umb	-1559
▁higher	-1560
▁Jimmy	-1561
▁pers	-1562
pping	-1563
▁smo	-1564
▁sec	-1565
▁neighb	-1566
▁swings	-1567
▁accident	-1568
▁fairy	-1569
ier	-1570
vel	-1571
▁today	-1572
▁games	-1573
▁welcome	-1574
orrow	-1575
▁dry	-1576
▁Inside	-1577
▁stand	-1578
▁noises	-1579
ors	-1580
▁drove	-1581
▁pocket	-1582
▁throw	-1583
ventually	-1584
▁suddenly	-1585
▁forget	-1586
▁lon	-1587
▁turns	-1588
▁hugs	-1589
▁piece	-1590
▁cheered	-1591
ract	-1592
▁Their	-1593
▁free	-1594
▁ben	-1595
▁lonely	-1596
▁happen	-1597
▁fence	-1598
cy	-1599
▁wings	-1600
▁Wh	-1601
ourn	-1602
▁neck	-1603
▁longer	-1604
▁journ	-1605
▁sang	-1606
ible	-1607
ead	-1608
▁explained	-1609
▁along	-1610
▁sea	-1611
▁soup	-1612
▁corn	-1613
▁stories	-1614
▁late	-1615
▁upset	-1616
▁well	-1617
itting	-1618
▁shoes	-1619
▁inst	-1620
▁secret	-1621
▁adventures	-1622
▁miss	-1623
▁mat	-1624
▁Fluffy	-1625
▁trou	-1626
▁stars	-1627
▁caught	-1628
phant	-1629
▁whe	-1630
ches	-1631
▁singing	-1632
▁ph	-1633
oun	-1634
▁rocks	-1635
▁bucket	-1636
▁lunch	-1637
ape	-1638
ces	-1639
▁swam	-1640
▁dropped	-1641
▁Sammy	-1642
▁dist	-1643
▁wish	-1644
▁shook	-1645
▁young	-1646
ocked	-1647
▁drink	-1648
▁elephant	-1649
▁bring	-1650
▁moved	-1651
yard	-1652
ment	-1653
▁plac	-1654
▁belong	-1655
aughty	-1656
▁juice	-1657
ountain	-1658
▁Thank	-1659
▁star	-1660
▁naughty	-1661
▁backyard	-1662
ek	-1663
llo	-1664
▁mine	-1665
fused	-1666
▁jar	-1667
▁street	-1668
bow	-1669
▁tom	-1670
▁past	-1671
▁key	-1672
▁takes	-1673
▁taking	-1674
▁apple	-1675
▁shapes	-1676
▁purp	-1677
▁orange	-1678
▁exploring	-1679
ward	-1680
▁shop	-1681
▁owl	-1682
▁cou	-1683
Lily	-1684
▁Tw	-1685
Do	-1686
▁exp	-1687
▁nearby	-1688
▁pig	-1689
bby	-1690
▁Later	-1691
▁wise	-1692
▁nose	-1693
▁wondered	-1694
▁woke	-1695
▁resp	-1696
ung	-1697
▁comes	-1698
▁es	-1699
▁seemed	-1700
▁cow	-1701
▁busy	-1702
▁af	-1703
col	-1704
▁des	-1705
▁mail	-1706
▁sounds	-1707
▁bench	-1708
▁tiny	-1709
▁relie	-1710
▁sick	-1711
▁inv	-1712
▁purple	-1713
cing	-1714
▁mark	-1715
▁rainbow	-1716
sy	-1717
aughter	-1718
▁arms	-1719
ose	-1720
▁though	-1721
adow	-1722
▁nest	-1723
ions	-1724
fish	-1725
▁mad	-1726
ining	-1727
▁mil	-1728
▁year	-1729
thday	-1730
pper	-1731
ese	-1732
▁sitting	-1733
cks	-1734
▁ob	-1735
▁driver	-1736
▁holding	-1737
▁round	-1738
▁king	-1739
▁carry	-1740
raid	-1741
read	-1742
▁afraid	-1743
ity	-1744
▁branch	-1745
ittens	-1746
▁forever	-1747
ale	-1748
▁cir	-1749
▁whist	-1750
▁hello	-1751
▁gift	-1752
▁kite	-1753
▁spoon	-1754
board	-1755
▁boun	-1756
ost	-1757
vered	-1758
▁cute	-1759
▁daughter	-1760
▁peace	-1761
▁shell	-1762
▁lift	-1763
▁nothing	-1764
idge	-1765
to	-1766
▁fit	-1767
▁coat	-1768
og	-1769
▁swimming	-1770
▁huge	-1771
▁Come	-1772
▁With	-1773
▁touched	-1774
▁bread	-1775
▁patient	-1776
ours	-1777
Of	-1778
let	-1779
▁letter	-1780
▁Al	-1781
▁birthday	-1782
▁promise	-1783
▁grab	-1784
▁relieved	-1785
cer	-1786
sting	-1787
▁gives	-1788
▁accidentally	-1789
▁wra	-1790
eth	-1791
▁band	-1792
▁puts	-1793
▁Ell	-1794
▁hope	-1795
▁milk	-1796
▁bottle	-1797
▁creature	-1798
Hey	-1799
gg	-1800
▁fing	-1801
shine	-1802
▁days	-1803
▁intere	-1804
▁cheese	-1805
▁life	-1806
▁laughing	-1807
▁gigg	-1808
▁cozy	-1809
▁collect	-1810
alm	-1811
▁Tweet	-1812
▁lucky	-1813
▁bush	-1814
▁onto	-1815
▁exciting	-1816
▁kick	-1817
▁ret	-1818
▁mist	-1819
▁power	-1820
▁spin	-1821
▁cave	-1822
▁disco	-1823
▁comfort	-1824
▁journey	-1825
▁act	-1826
▁sunshine	-1827
▁sunny	-1828
gged	-1829
▁fan	-1830
▁Jenny	-1831
▁ear	-1832
▁instead	-1833
▁return	-1834
ped	-1835
ten	-1836
arp	-1837
ness	-1838
▁pointed	-1839
▁pudd	-1840
▁inc	-1841
▁smiling	-1842
▁imag	-1843
▁eas	-1844
ize	-1845
▁searched	-1846
els	-1847
itch	-1848
▁road	-1849
▁honey	-1850
▁sharp	-1851
▁anyone	-1852
▁hor	-1853
▁talked	-1854
oman	-1855
▁spo	-1856
▁bought	-1857
ball	-1858
▁later	-1859
▁suc	-1860
▁woman	-1861
▁sandw	-1862
▁plane	-1863
▁gather	-1864
blem	-1865
ub	-1866
▁problem	-1867
▁snowman	-1868
▁person	-1869
▁watching	-1870
mer	-1871
unt	-1872
▁crayons	-1873
▁healthy	-1874
▁smelled	-1875
▁rope	-1876
▁tasty	-1877
irt	-1878
▁trouble	-1879
Good	-1880
▁meet	-1881
▁ce	-1882
▁Ch	-1883
▁ducks	-1884
round	-1885
▁pop	-1886
▁loves	-1887
▁kiss	-1888
▁Somet	-1889
itten	-1890
▁pile	-1891
een	-1892
▁clouds	-1893
▁ent	-1894
▁apples	-1895
▁shining	-1896
▁par	-1897
ove	-1898
▁storm	-1899
▁spid	-1900
▁button	-1901
▁interesting	-1902
▁Emily	-1903
▁How	-1904
▁mach	-1905
▁zoom	-1906
▁organ	-1907
amed	-1908
▁card	-1909
▁adm	-1910
▁zoo	-1911
▁pres	-1912
▁wide	-1913
▁clever	-1914
▁Mittens	-1915
▁res	-1916
ont	-1917
▁feather	-1918
owed	-1919
▁matter	-1920
▁pill	-1921
eb	-1922
ndp	-1923
▁bark	-1924
▁hon	-1925
▁pract	-1926
▁prot	-1927
aur	-1928
▁ap	-1929
▁eag	-1930
▁front	-1931
▁respect	-1932
▁screamed	-1933
epend	-1934
▁goes	-1935
▁mud	-1936
ail	-1937
▁seat	-1938
▁protect	-1939
▁neighbor	-1940
▁saf	-1941
▁shr	-1942
▁quest	-1943
ex	-1944
▁danced	-1945
▁horse	-1946
isa	-1947
▁sur	-1948
▁trip	-1949
▁answer	-1950
▁puzz	-1951
▁asleep	-1952
▁vill	-1953
▁present	-1954
▁myster	-1955
▁spotted	-1956
▁St	-1957
▁tries	-1958
▁appeared	-1959
▁snake	-1960
erly	-1961
Come	-1962
▁teach	-1963
▁whole	-1964
▁path	-1965
▁Jake	-1966
▁giant	-1967
▁wild	-1968
▁lovely	-1969
▁cheer	-1970
ching	-1971
▁phone	-1972
▁slid	-1973
▁places	-1974
▁which	-1975
œI	-1976
▁wearing	-1977
▁di	-1978
up	-1979
▁teeth	-1980
▁Go	-1981
▁dirt	-1982
▁forgive	-1983
▁rolled	-1984
oose	-1985
▁confused	-1986
izz	-1987
▁Together	-1988
ular	-1989
▁Lisa	-1990
▁minut	-1991
▁tasted	-1992
ones	-1993
▁gently	-1994
▁impress	-1995
▁val	-1996
▁tun	-1997
▁couch	-1998
▁faces	-1999
▁thin	-2000
▁rude	-2001
ert	-2002
ssed	-2003
▁calm	-2004
▁pass	-2005
▁live	-2006
itty	-2007
▁mind	-2008
ndpa	-2009
▁spent	-2010
▁splas	-2011
▁pretended	-2012
▁pan	-2013
cean	-2014
▁med	-2015
▁ocean	-2016
▁ash	-2017
▁feet	-2018
▁supp	-2019
▁lad	-2020
nic	-2021
▁sal	-2022
▁pour	-2023
▁Le	-2024
▁ser	-2025
▁picnic	-2026
▁coin	-2027
▁machine	-2028
▁lay	-2029
unk	-2030
▁sack	-2031
▁corner	-2032
▁Sometimes	-2033
▁ring	-2034
▁drive	-2035
▁write	-2036
▁worm	-2037
▁bugs	-2038
▁spider	-2039
▁oven	-2040
▁push	-2041
▁wave	-2042
▁emb	-2043
▁chocol	-2044
Tom	-2045
▁building	-2046
▁smooth	-2047
▁last	-2048
▁ign	-2049
▁tomorrow	-2050
▁cookie	-2051
▁helpful	-2052
▁ca	-2053
umber	-2054
arge	-2055
▁cann	-2056
▁hiding	-2057
▁cart	-2058
▁Be	-2059
▁rec	-2060
als	-2061
▁Bu	-2062
▁wip	-2063
▁furry	-2064
▁ladder	-2065
▁remind	-2066
la	-2067
▁cannot	-2068
▁mountain	-2069
lex	-2070
ator	-2071
▁tid	-2072
▁blew	-2073
▁bell	-2074
▁ban	-2075
▁bubble	-2076
ato	-2077
▁chick	-2078
▁paw	-2079
▁spread	-2080
▁talking	-2081
ife	-2082
▁fold	-2083
▁fighting	-2084
▁finish	-2085
▁tool	-2086
▁delight	-2087
▁embar	-2088
▁leaf	-2089
▁embarra	-2090
▁sel	-2091
▁pool	-2092
▁wore	-2093
▁rob	-2094
▁foot	-2095
▁puddle	-2096
▁songs	-2097
▁shy	-2098
▁knee	-2099
▁spray	-2100
ighed	-2101
▁eventually	-2102
▁rep	-2103
▁neckl	-2104
▁waiting	-2105
▁maybe	-2106
▁chocolate	-2107
▁net	-2108
▁chased	-2109
▁bat	-2110
▁whenever	-2111
▁fixed	-2112
oph	-2113
▁stret	-2114
▁barked	-2115
▁Everywhere	-2116
▁large	-2117
ult	-2118
▁string	-2119
▁selfish	-2120
▁sol	-2121
▁coo	-2122
▁Please	-2123
lebr	-2124
▁wash	-2125
▁Some	-2126
▁Peter	-2127
▁Teddy	-2128
▁peaceful	-2129
▁celebr	-2130
▁whistle	-2131
▁stir	-2132
per	-2133
▁carrots	-2134
urse	-2135
▁ant	-2136
▁spe	-2137
▁cross	-2138
St	-2139
▁creative	-2140
▁plate	-2141
▁taste	-2142
▁hum	-2143
▁banan	-2144
▁robot	-2145
▁tidy	-2146
▁gen	-2147
▁moon	-2148
▁knocked	-2149
▁'	-2150
▁trust	-2151
▁crab	-2152
orry	-2153
▁While	-2154
▁hears	-2155
▁tells	-2156
box	-2157
▁cloth	-2158
My	-2159
▁village	-2160
▁stone	-2161
▁missed	-2162
ungle	-2163
iger	-2164
▁colour	-2165
▁stra	-2166
▁embarrassed	-2167
airs	-2168
▁Little	-2169
▁jungle	-2170
▁step	-2171
▁rocket	-2172
▁decor	-2173
old	-2174
Please	-2175
▁spicy	-2176
▁necklace	-2177
elly	-2178
▁treats	-2179
▁shelf	-2180
▁scar	-2181
▁hel	-2182
getable	-2183
umpy	-2184
arm	-2185
▁shirt	-2186
▁forward	-2187
▁vegetable	-2188
ush	-2189
▁splash	-2190
dge	-2191
▁tea	-2192
▁sticks	-2193
▁emp	-2194
▁legs	-2195
▁Sus	-2196
oin	-2197
▁empty	-2198
▁save	-2199
▁jumping	-2200
▁ple	-2201
▁nut	-2202
▁gray	-2203
▁whis	-2204
▁sharing	-2205
▁grew	-2206
▁ber	-2207
▁sheep	-2208
▁Johnn	-2209
aking	-2210
▁tightly	-2211
▁landed	-2212
most	-2213
▁Mummy	-2214
▁gener	-2215
▁meant	-2216
▁deter	-2217
▁bal	-2218
▁ashamed	-2219
▁nods	-2220
▁disappoin	-2221
▁pillow	-2222
▁determ	-2223
▁almost	-2224
ird	-2225
ying	-2226
▁honest	-2227
▁Don	-2228
▁pizz	-2229
▁Even	-2230
ian	-2231
▁Why	-2232
▁gold	-2233
▁jew	-2234
▁sour	-2235
dle	-2236
▁breath	-2237
▁carried	-2238
▁Leo	-2239
▁meadow	-2240
▁understood	-2241
▁Alice	-2242
▁Johnny	-2243
ano	-2244
▁stood	-2245
▁yelled	-2246
▁these	-2247
▁van	-2248
▁police	-2249
▁drew	-2250
den	-2251
Stop	-2252
▁seed	-2253
ground	-2254
▁pay	-2255
▁kitten	-2256
▁snacks	-2257
▁prince	-2258
ned	-2259
▁success	-2260
▁fear	-2261
▁sparkly	-2262
gly	-2263
▁bored	-2264
erp	-2265
▁av	-2266
▁lem	-2267
Ben	-2268
ital	-2269
aul	-2270
▁gun	-2271
▁ugly	-2272
ony	-2273
▁gas	-2274
▁shore	-2275
▁vase	-2276
▁hosp	-2277
▁disappointed	-2278
hin	-2279
▁line	-2280
ork	-2281
ustr	-2282
▁hours	-2283
kin	-2284
▁hospital	-2285
▁group	-2286
▁class	-2287
ho	-2288
▁pizza	-2289
vous	-2290
itter	-2291
▁seek	-2292
▁plants	-2293
iff	-2294
▁blow	-2295
▁knowing	-2296
▁Mark	-2297
▁hidden	-2298
▁generous	-2299
▁returned	-2300
▁cries	-2301
▁tent	-2302
▁puzzle	-2303
oop	-2304
▁pri	-2305
▁easy	-2306
▁messy	-2307
▁poor	-2308
▁glass	-2309
▁frustr	-2310
▁Bl	-2311
▁feed	-2312
▁standing	-2313
▁sleepy	-2314
▁pin	-2315
▁waves	-2316
▁test	-2317
▁sighed	-2318
▁jelly	-2319
▁fancy	-2320
▁burn	-2321
▁flag	-2322
▁sandwich	-2323
Sorry	-2324
▁thankful	-2325
▁bedroom	-2326
▁powerful	-2327
▁ship	-2328
▁taught	-2329
body	-2330
▁tick	-2331
▁scarf	-2332
▁ner	-2333
Where	-2334
▁sold	-2335
▁kissed	-2336
▁circ	-2337
▁crown	-2338
▁pir	-2339
lower	-2340
▁twirl	-2341
▁boring	-2342
▁deer	-2343
▁mot	-2344
ote	-2345
▁nervous	-2346
era	-2347
▁reg	-2348
erpill	-2349
▁caterpill	-2350
▁mysterious	-2351
mb	-2352
▁tears	-2353
▁polite	-2354
▁frustrated	-2355
arl	-2356
▁spoil	-2357
work	-2358
assed	-2359
af	-2360
▁scr	-2361
▁passed	-2362
Are	-2363
▁Br	-2364
▁closet	-2365
▁often	-2366
▁Bo	-2367
▁Today	-2368
oof	-2369
▁hur	-2370
▁drop	-2371
▁yourself	-2372
▁minutes	-2373
▁hang	-2374
▁determined	-2375
▁leg	-2376
▁fig	-2377
▁clown	-2378
▁rad	-2379
▁gets	-2380
pack	-2381
ensive	-2382
▁excite	-2383
selves	-2384
▁fil	-2385
▁gate	-2386
issors	-2387
▁cap	-2388
▁expensive	-2389
▁bridge	-2390
▁chew	-2391
▁dancing	-2392
ina	-2393
iddle	-2394
▁chest	-2395
▁gathered	-2396
light	-2397
▁picks	-2398
▁scissors	-2399
▁flut	-2400
▁saved	-2401
▁finger	-2402
ets	-2403
illed	-2404
▁wagged	-2405
ates	-2406
ual	-2407
▁esc	-2408
izzy	-2409
▁caterpillar	-2410
▁wolf	-2411
▁boss	-2412
osaur	-2413
▁wander	-2414
▁grumpy	-2415
▁drum	-2416
▁comfortable	-2417
▁No	-2418
▁lock	-2419
▁Susie	-2420
▁packed	-2421
ond	-2422
▁queen	-2423
▁answered	-2424
▁hopping	-2425
▁working	-2426
ots	-2427
▁spend	-2428
▁dogs	-2429
▁mistake	-2430
▁excitement	-2431
▁lit	-2432
▁mummy	-2433
▁dinosaur	-2434
▁stuff	-2435
▁taken	-2436
▁knight	-2437
▁cand	-2438
▁vegetables	-2439
▁medic	-2440
▁wheel	-2441
uce	-2442
▁walks	-2443
▁drawing	-2444
▁pus	-2445
▁middle	-2446
▁press	-2447
▁bone	-2448
ggs	-2449
▁eggs	-2450
▁true	-2451
que	-2452
▁lazy	-2453
▁giggled	-2454
▁lose	-2455
▁crawl	-2456
▁ones	-2457
▁ruined	-2458
▁mir	-2459
▁fruits	-2460
▁wis	-2461
▁dest	-2462
▁clap	-2463
▁medicine	-2464
ugar	-2465
▁add	-2466
▁number	-2467
▁bathroom	-2468
▁smelly	-2469
iness	-2470
ecially	-2471
▁asking	-2472
Who	-2473
▁Blue	-2474
▁exam	-2475
▁fake	-2476
▁feathers	-2477
▁sugar	-2478
▁sight	-2479
▁brush	-2480
▁stones	-2481
▁gar	-2482
▁sweetie	-2483
▁licked	-2484
pecially	-2485
▁tape	-2486
▁especially	-2487
ror	-2488
aser	-2489
▁team	-2490
▁weak	-2491
▁change	-2492
▁body	-2493
▁distance	-2494
▁nod	-2495
ella	-2496
▁roar	-2497
▁drank	-2498
▁pleased	-2499
▁lead	-2500
elp	-2501
▁match	-2502
▁bake	-2503
▁pray	-2504
▁cri	-2505
▁cage	-2506
▁splashed	-2507
▁Eventually	-2508
▁fluffy	-2509
▁If	-2510
▁balls	-2511
▁mic	-2512
▁yours	-2513
▁mov	-2514
ating	-2515
▁lying	-2516
▁calling	-2517
aged	-2518
▁fis	-2519
▁sailed	-2520
▁moving	-2521
uggest	-2522
▁glow	-2523
▁Dan	-2524
▁lemon	-2525
▁tie	-2526
▁suggest	-2527
▁disappeared	-2528
▁board	-2529
▁sell	-2530
▁noisy	-2531
▁wrote	-2532
▁glue	-2533
▁soap	-2534
▁clear	-2535
ete	-2536
hip	-2537
▁relax	-2538
ha	-2539
▁rid	-2540
▁ok	-2541
▁week	-2542
Help	-2543
▁eld	-2544
▁become	-2545
▁decide	-2546
▁incred	-2547
▁moms	-2548
▁measure	-2549
▁juicy	-2550
▁mirror	-2551
▁covered	-2552
alous	-2553
▁playground	-2554
Now	-2555
▁shows	-2556
▁jealous	-2557
yal	-2558
▁questions	-2559
▁horn	-2560
▁fine	-2561
▁Bobby	-2562
▁rare	-2563
▁content	-2564
▁boys	-2565
▁craw	-2566
ination	-2567
▁eager	-2568
▁crawled	-2569
▁towel	-2570
▁check	-2571
ipp	-2572
▁skipped	-2573
▁dig	-2574
▁father	-2575
▁ind	-2576
▁cleaned	-2577
▁Mrs	-2578
▁ext	-2579
▁ord	-2580
▁famous	-2581
▁eye	-2582
▁twist	-2583
▁Ella	-2584
▁needs	-2585
▁shoot	-2586
▁End	-2587
▁garage	-2588
▁joke	-2589
▁incredible	-2590
imp	-2591
▁trucks	-2592
eez	-2593
▁ed	-2594
umbled	-2595
▁sword	-2596
▁loyal	-2597
illi	-2598
▁hose	-2599
▁bubbles	-2600
ory	-2601
▁map	-2602
▁organized	-2603
▁happening	-2604
▁realised	-2605
ti	-2606
▁unus	-2607
▁branches	-2608
▁word	-2609
fic	-2610
▁lamp	-2611
▁tag	-2612
▁discovered	-2613
▁Pete	-2614
▁motor	-2615
▁unusual	-2616
▁dish	-2617
▁borrow	-2618
ipper	-2619
▁once	-2620
▁hurts	-2621
▁tiger	-2622
▁wand	-2623
▁extra	-2624
Be	-2625
▁sil	-2626
▁frown	-2627
cil	-2628
▁rich	-2629
▁knife	-2630
▁elderly	-2631
▁thick	-2632
▁pencil	-2633
ddy	-2634
▁mod	-2635
▁balloons	-2636
lies	-2637
▁whale	-2638
▁cover	-2639
▁diffic	-2640
▁figure	-2641
▁louder	-2642
▁cost	-2643
Me	-2644
asing	-2645
ique	-2646
▁four	-2647
▁guess	-2648
▁bottom	-2649
keep	-2650
▁difficult	-2651
port	-2652
▁aw	-2653
▁toug	-2654
▁Mandy	-2655
▁laughs	-2656
▁colourful	-2657
▁flash	-2658
▁unique	-2659
▁ang	-2660
▁compet	-2661
▁arg	-2662
▁offered	-2663
▁chase	-2664
▁balance	-2665
fast	-2666
▁boxes	-2667
▁shake	-2668
imed	-2669
▁ham	-2670
▁spun	-2671
▁added	-2672
cept	-2673
ery	-2674
▁turt	-2675
▁hero	-2676
▁wrapped	-2677
▁barn	-2678
▁jewel	-2679
▁adventur	-2680
▁Brown	-2681
▁berries	-2682
ately	-2683
▁kindness	-2684
▁coins	-2685
▁straw	-2686
▁giving	-2687
▁breakfast	-2688
?".	-2689
▁log	-2690
▁chicken	-2691
▁Ellie	-2692
▁bloom	-2693
ature	-2694
▁bald	-2695
▁goat	-2696
▁banana	-2697
ages	-2698
ured	-2699
▁mighty	-2700
rag	-2701
▁norm	-2702
▁adventurous	-2703
▁swan	-2704
▁dolp	-2705
ye	-2706
▁fool	-2707
▁falls	-2708
▁managed	-2709
land	-2710
▁lifted	-2711
▁tough	-2712
ym	-2713
▁pump	-2714
▁pointing	-2715
▁cher	-2716
ject	-2717
▁helps	-2718
uggled	-2719
▁dizzy	-2720
▁circle	-2721
Well	-2722
Tim	-2723
▁pee	-2724
alk	-2725
▁wagon	-2726
▁Mar	-2727
▁harder	-2728
olog	-2729
▁Bella	-2730
▁My	-2731
ouses	-2732
keeper	-2733
▁dreamed	-2734
▁competit	-2735
▁smoke	-2736
▁weird	-2737
▁melt	-2738
▁loudly	-2739
▁normal	-2740
oppy	-2741
▁bossy	-2742
▁belonged	-2743
Here	-2744
▁market	-2745
▁impressed	-2746
▁fat	-2747
▁ears	-2748
▁grown	-2749
▁wrap	-2750
▁Fred	-2751
▁skin	-2752
▁shape	-2753
▁apolog	-2754
ilt	-2755
▁hats	-2756
▁knows	-2757
▁icy	-2758
▁stubb	-2759
▁learning	-2760
▁Dave	-2761
emo	-2762
▁against	-2763
▁search	-2764
▁Nemo	-2765
▁hunt	-2766
▁scare	-2767
▁depend	-2768
▁houses	-2769
▁enjoying	-2770
pes	-2771
anged	-2772
▁means	-2773
▁favour	-2774
▁harm	-2775
▁slipped	-2776
▁brothers	-2777
head	-2778
▁rough	-2779
▁edge	-2780
▁painting	-2781
reen	-2782
▁choose	-2783
▁grace	-2784
▁brilli	-2785
▁record	-2786
▁Mike	-2787
▁fright	-2788
▁buttons	-2789
▁stubborn	-2790
▁ref	-2791
apping	-2792
ready	-2793
▁Ducky	-2794
▁whisp	-2795
▁favourite	-2796
▁foolish	-2797
▁jack	-2798
▁safely	-2799
▁shells	-2800
▁brilliant	-2801
▁batter	-2802
▁cudd	-2803
▁toast	-2804
▁fridge	-2805
▁circles	-2806
omed	-2807
▁space	-2808
▁stri	-2809
iv	-2810
▁guit	-2811
▁cro	-2812
▁ter	-2813
rage	-2814
▁happiness	-2815
▁already	-2816
▁rat	-2817
▁turtle	-2818
▁bitter	-2819
erry	-2820
▁walls	-2821
aw	-2822
▁office	-2823
▁yog	-2824
▁libr	-2825
▁law	-2826
▁wake	-2827
▁sounded	-2828
▁island	-2829
▁mixed	-2830
▁strawber	-2831
edient	-2832
▁dreams	-2833
▁saying	-2834
▁clay	-2835
▁egg	-2836
▁crack	-2837
▁Bobo	-2838
▁cheerful	-2839
ext	-2840
erg	-2841
arth	-2842
▁trunk	-2843
iable	-2844
▁bags	-2845
▁unl	-2846
▁cam	-2847
▁valu	-2848
▁smaller	-2849
▁movie	-2850
▁roof	-2851
▁escape	-2852
ache	-2853
▁fier	-2854
▁nosy	-2855
▁guitar	-2856
▁excla	-2857
▁shark	-2858
▁poured	-2859
▁notice	-2860
▁accept	-2861
▁parrot	-2862
▁cab	-2863
▁stronger	-2864
▁stream	-2865
▁magn	-2866
▁tunn	-2867
sc	-2868
▁crayon	-2869
▁obedient	-2870
▁invited	-2871
▁weal	-2872
▁nicely	-2873
▁exclaimed	-2874
arry	-2875
▁useful	-2876
▁dependable	-2877
▁suggested	-2878
▁cabin	-2879
▁tools	-2880
▁reliable	-2881
▁fierce	-2882
▁thu	-2883
▁times	-2884
▁Tweety	-2885
▁low	-2886
▁Soph	-2887
▁proudly	-2888
▁terri	-2889
▁scrat	-2890
▁counted	-2891
▁fingers	-2892
▁city	-2893
▁rose	-2894
▁independ	-2895
ado	-2896
▁showing	-2897
▁study	-2898
ola	-2899
▁pil	-2900
▁lean	-2901
irp	-2902
▁Joey	-2903
▁bushes	-2904
▁design	-2905
▁above	-2906
▁explored	-2907
na	-2908
wards	-2909
▁tummy	-2910
▁joined	-2911
▁hoop	-2912
▁frightened	-2913
corn	-2914
▁dead	-2915
▁stumbled	-2916
rell	-2917
▁gem	-2918
▁kicked	-2919
▁birdie	-2920
▁fountain	-2921
▁spinning	-2922
cu	-2923
cient	-2924
▁twig	-2925
▁spoiled	-2926
▁frag	-2927
▁dough	-2928
▁locked	-2929
▁lights	-2930
▁successful	-2931
▁stove	-2932
▁using	-2933
▁themselves	-2934
▁cop	-2935
kn	-2936
▁mem	-2937
▁wiped	-2938
▁jog	-2939
▁brightly	-2940
▁excitedly	-2941
▁zip	-2942
▁valuable	-2943
▁rode	-2944
▁tele	-2945
ormous	-2946
▁independent	-2947
▁enormous	-2948
az	-2949
amond	-2950
▁ancient	-2951
▁swe	-2952
▁yarn	-2953
▁Grandpa	-2954
œLet	-2955
▁beak	-2956
▁cleaning	-2957
▁fre	-2958
▁Your	-2959
▁thoughtful	-2960
▁Whenever	-2961
▁kinds	-2962
▁delicate	-2963
▁built	-2964
anut	-2965
▁jam	-2966
ention	-2967
▁eng	-2968
▁seem	-2969
▁diamond	-2970
▁reminded	-2971
ither	-2972
▁Lola	-2973
▁ow	-2974
▁steal	-2975
inal	-2976
▁popcorn	-2977
ipe	-2978
▁shadow	-2979
▁thirst	-2980
orge	-2981
▁holds	-2982
▁shone	-2983
▁sniff	-2984
▁ways	-2985
mbrell	-2986
▁fragile	-2987
▁Fr	-2988
▁envel	-2989
▁admired	-2990
oot	-2991
▁stat	-2992
▁flute	-2993
▁umbrell	-2994
iginal	-2995
▁tank	-2996
▁bounce	-2997
▁bean	-2998
▁practice	-2999
known	-3000
uth	-3001
▁bees	-3002
▁marble	-3003
eeze	-3004
▁Pe	-3005
▁changed	-3006
▁grandpa	-3007
▁flashlight	-3008
▁Ge	-3009
▁costum	-3010
pid	-3011
illa	-3012
▁whispered	-3013
▁bump	-3014
▁rubb	-3015
▁finding	-3016
▁painted	-3017
▁brace	-3018
▁helm	-3019
▁half	-3020
umbers	-3021
▁solve	-3022
▁camera	-3023
▁pumpkin	-3024
▁lab	-3025
▁pige	-3026
ray	-3027
cod	-3028
▁Cl	-3029
▁serious	-3030
▁original	-3031
▁thirsty	-3032
▁stamp	-3033
▁unknown	-3034
uring	-3035
▁stupid	-3036
▁tomato	-3037
▁suit	-3038
▁dove	-3039
▁post	-3040
▁playful	-3041
▁Sn	-3042
▁raced	-3043
▁stairs	-3044
▁yet	-3045
▁beet	-3046
▁guard	-3047
▁sleeping	-3048
▁opens	-3049
▁wealthy	-3050
▁clum	-3051
▁picking	-3052
▁enc	-3053
▁salad	-3054
inary	-3055
▁cone	-3056
▁seeds	-3057
▁comput	-3058
gu	-3059
▁mis	-3060
▁pebble	-3061
▁chose	-3062
▁son	-3063
▁crocod	-3064
▁mole	-3065
▁allowed	-3066
▁peanut	-3067
How	-3068
ilty	-3069
▁angel	-3070
▁stops	-3071
▁dolphin	-3072
▁forth	-3073
▁guilty	-3074
▁flex	-3075
▁cheap	-3076
▁nurse	-3077
dom	-3078
▁washed	-3079
▁delighted	-3080
iew	-3081
▁doesn	-3082
▁nature	-3083
▁searching	-3084
▁Alex	-3085
▁metal	-3086
com	-3087
▁cere	-3088
▁clock	-3089
▁moder	-3090
▁George	-3091
▁sunf	-3092
▁jolly	-3093
▁march	-3094
anger	-3095
▁compass	-3096
▁boats	-3097
▁hammer	-3098
ines	-3099
▁fresh	-3100
vice	-3101
ugged	-3102
▁view	-3103
▁those	-3104
▁numbers	-3105
▁leaving	-3106
isk	-3107
▁clumsy	-3108
▁telling	-3109
▁rushed	-3110
▁hay	-3111
▁dull	-3112
oomy	-3113
ience	-3114
▁arrow	-3115
▁hairy	-3116
▁print	-3117
▁pant	-3118
▁Pat	-3119
▁dust	-3120
▁missing	-3121
het	-3122
▁regular	-3123
gest	-3124
▁flexible	-3125
▁Toby	-3126
▁acorn	-3127
▁shel	-3128
▁terrible	-3129
▁prize	-3130
▁modern	-3131
▁friendship	-3132
!".	-3133
▁engine	-3134
▁spilled	-3135
▁tem	-3136
▁jug	-3137
▁tor	-3138
ations	-3139
▁ending	-3140
▁load	-3141
▁tooth	-3142
▁biggest	-3143
▁sauce	-3144
▁driving	-3145
▁avo	-3146
▁aunt	-3147
aghet	-3148
aghetti	-3149
▁barber	-3150
▁envelope	-3151
▁sink	-3152
▁umbrella	-3153
▁rub	-3154
▁destro	-3155
▁pirate	-3156
▁potato	-3157
▁towers	-3158
▁sne	-3159
▁handed	-3160
▁peeked	-3161
ict	-3162
▁resc	-3163
▁popular	-3164
fa	-3165
▁handle	-3166
▁patter	-3167
time	-3168
▁careless	-3169
▁carrying	-3170
▁dreaming	-3171
▁loll	-3172
▁wire	-3173
▁beetle	-3174
▁screen	-3175
▁thunder	-3176
▁char	-3177
▁spaghetti	-3178
ipop	-3179
▁tied	-3180
▁graceful	-3181
See	-3182
▁Next	-3183
▁ing	-3184
▁comb	-3185
▁prep	-3186
▁wing	-3187
▁stage	-3188
▁cereal	-3189
Go	-3190
▁jacket	-3191
▁statue	-3192
▁tunnel	-3193
▁rubbed	-3194
▁lollipop	-3195
▁compassion	-3196
▁mush	-3197
▁knock	-3198
▁pattern	-3199
▁desk	-3200
▁reward	-3201
▁slides	-3202
▁scatter	-3203
▁goose	-3204
redient	-3205
▁ingredient	-3206
▁shocked	-3207
▁computer	-3208
▁er	-3209
▁Andy	-3210
ision	-3211
arsh	-3212
▁note	-3213
▁deliver	-3214
▁scale	-3215
▁Sm	-3216
▁Polly	-3217
▁stack	-3218
robe	-3219
▁cur	-3220
▁square	-3221
▁mel	-3222
▁meal	-3223
▁bull	-3224
▁trap	-3225
▁liz	-3226
▁crazy	-3227
▁grand	-3228
▁bracelet	-3229
▁crocodile	-3230
eezed	-3231
▁truth	-3232
▁pengu	-3233
▁travel	-3234
▁pow	-3235
▁witch	-3236
▁gasped	-3237
▁shiver	-3238
▁mask	-3239
▁imagined	-3240
▁impressive	-3241
▁rug	-3242
▁Grace	-3243
▁perform	-3244
▁persist	-3245
ellig	-3246
▁trash	-3247
▁collar	-3248
▁earth	-3249
▁intellig	-3250
▁early	-3251
They	-3252
▁pup	-3253
▁jumps	-3254
▁thinking	-3255
host	-3256
▁advice	-3257
oe	-3258
Ow	-3259
▁Paul	-3260
ement	-3261
io	-3262
iches	-3263
▁wheels	-3264
▁crane	-3265
▁stranger	-3266
▁env	-3267
▁perm	-3268
▁names	-3269
He	-3270
▁enth	-3271
▁windows	-3272
comfort	-3273
œWhat	-3274
▁spoke	-3275
▁spring	-3276
illie	-3277
▁fork	-3278
▁ghost	-3279
ibb	-3280
ikes	-3281
▁Look	-3282
▁bent	-3283
▁beauty	-3284
▁create	-3285
▁Here	-3286
There	-3287
▁stickers	-3288
▁enthus	-3289
▁object	-3290
▁library	-3291
▁celebrate	-3292
▁ingredients	-3293
▁mushroom	-3294
aches	-3295
▁Bear	-3296
comfortable	-3297
▁mill	-3298
▁waff	-3299
▁growing	-3300
▁phot	-3301
▁order	-3302
▁warned	-3303
▁mailbox	-3304
▁discover	-3305
▁uncomfortable	-3306
▁reading	-3307
▁hipp	-3308
▁pale	-3309
▁butterflies	-3310
awn	-3311
▁camp	-3312
▁torn	-3313
▁sorts	-3314
▁Sophie	-3315
▁sparkled	-3316
œLetâ	-3317
▁pigeon	-3318
▁question	-3319
ebra	-3320
▁sofa	-3321
▁harmless	-3322
▁complet	-3323
▁letters	-3324
▁parade	-3325
▁competitive	-3326
coa	-3327
œYes	-3328
▁anx	-3329
tter	-3330
▁flour	-3331
▁sudden	-3332
œIt	-3333
▁penny	-3334
▁uncle	-3335
▁pretending	-3336
▁gor	-3337
▁destroy	-3338
▁sandwiches	-3339
ses	-3340
▁nuts	-3341
▁ahead	-3342
orant	-3343
▁rece	-3344
▁patch	-3345
▁counting	-3346
ips	-3347
loo	-3348
▁blueber	-3349
▁badly	-3350
▁pony	-3351
ince	-3352
▁shut	-3353
▁lizard	-3354
▁anxious	-3355
▁zebra	-3356
▁beep	-3357
▁surf	-3358
▁placed	-3359
▁cooking	-3360
▁piano	-3361
▁neat	-3362
▁humble	-3363
▁Tweetie	-3364
▁hook	-3365
▁encou	-3366
ices	-3367
▁sadly	-3368
▁snuggled	-3369
▁hung	-3370
▁univer	-3371
▁may	-3372
▁cocoa	-3373
▁ignorant	-3374
▁twirled	-3375
▁intelligent	-3376
ric	-3377
▁station	-3378
▁base	-3379
▁otter	-3380
▁sunflower	-3381
stri	-3382
▁couldnâ	-3383
▁Sh	-3384
▁super	-3385
▁persistent	-3386
aid	-3387
▁dug	-3388
▁triang	-3389
▁refused	-3390
Yay	-3391
▁nail	-3392
▁task	-3393
▁speed	-3394
▁pepper	-3395
ief	-3396
▁cards	-3397
▁gum	-3398
cream	-3399
▁rules	-3400
▁gloomy	-3401
▁cupboard	-3402
▁Ba	-3403
▁Bill	-3404
▁pants	-3405
▁chance	-3406
▁fearful	-3407
gust	-3408
▁chasing	-3409
▁charming	-3410
ud	-3411
▁Sandy	-3412
▁leash	-3413
▁starts	-3414
▁tur	-3415
▁sett	-3416
▁shaking	-3417
▁creatures	-3418
▁deaf	-3419
▁attract	-3420
▁Give	-3421
▁disgust	-3422
▁trick	-3423
▁carp	-3424
▁ordinary	-3425
▁track	-3426
arian	-3427
▁resist	-3428
▁pasta	-3429
▁trump	-3430
▁anywhere	-3431
erable	-3432
▁older	-3433
▁cartoon	-3434
lcano	-3435
▁curt	-3436
▁gifted	-3437
cut	-3438
▁hippo	-3439
▁curtain	-3440
▁led	-3441
▁yawn	-3442
▁miserable	-3443
ceed	-3444
▁courage	-3445
▁cricket	-3446
▁squash	-3447
▁gorilla	-3448
▁brighter	-3449
Give	-3450
▁impat	-3451
bled	-3452
▁send	-3453
▁gir	-3454
▁alert	-3455
▁purse	-3456
▁jet	-3457
▁practiced	-3458
▁club	-3459
▁hurry	-3460
▁helmet	-3461
▁turkey	-3462
▁value	-3463
▁shouts	-3464
▁decorate	-3465
ne	-3466
▁bandage	-3467
▁Charl	-3468
ctop	-3469
ctopus	-3470
▁soldier	-3471
urb	-3472
▁compl	-3473
▁fu	-3474
▁ostri	-3475
▁scoot	-3476
▁impatient	-3477
▁case	-3478
▁tire	-3479
▁disturb	-3480
htub	-3481
iest	-3482
▁allig	-3483
▁volcano	-3484
▁compassionate	-3485
▁trumpet	-3486
▁bathtub	-3487
▁shine	-3488
▁Millie	-3489
und	-3490
▁bounced	-3491
▁support	-3492
▁itself	-3493
▁octopus	-3494
aked	-3495
▁spell	-3496
▁carpet	-3497
▁drawer	-3498
▁Where	-3499
▁disgusting	-3500
▁Are	-3501
▁jeep	-3502
▁Before	-3503
▁pressed	-3504
▁bicy	-3505
▁meas	-3506
▁grabs	-3507
▁filthy	-3508
▁melon	-3509
noon	-3510
▁comet	-3511
▁barking	-3512
▁afternoon	-3513
▁mug	-3514
▁salt	-3515
▁restless	-3516
▁shoe	-3517
▁hunter	-3518
aff	-3519
▁envious	-3520
Bye	-3521
▁bri	-3522
▁tray	-3523
▁succeed	-3524
▁firework	-3525
▁helpless	-3526
▁pulls	-3527
icop	-3528
icopter	-3529
▁Buddy	-3530
▁stretched	-3531
▁Hen	-3532
▁ten	-3533
▁nowhere	-3534
ubby	-3535
▁skip	-3536
▁admire	-3537
▁attractive	-3538
▁lively	-3539
▁cryst	-3540
▁magnet	-3541
▁nobody	-3542
▁helicopter	-3543
aroo	-3544
▁human	-3545
angaroo	-3546
▁shield	-3547
▁explain	-3548
▁repe	-3549
aurant	-3550
▁Brownie	-3551
▁cush	-3552
▁needle	-3553
▁organize	-3554
▁somewhere	-3555
gn	-3556
▁five	-3557
▁Jerry	-3558
▁giggle	-3559
▁restaurant	-3560
gging	-3561
▁cows	-3562
▁cats	-3563
▁leop	-3564
▁anyway	-3565
If	-3566
▁barrel	-3567
ser	-3568
▁vine	-3569
▁kangaroo	-3570
▁bet	-3571
▁vide	-3572
▁attic	-3573
▁monkeys	-3574
▁split	-3575
▁sticker	-3576
▁lions	-3577
▁cooked	-3578
▁reco	-3579
▁wishes	-3580
▁ostrich	-3581
ophone	-3582
œThat	-3583
▁dess	-3584
▁thief	-3585
▁poem	-3586
▁chubby	-3587
▁thread	-3588
▁Bet	-3589
▁ants	-3590
▁Everything	-3591
▁further	-3592
▁sandbox	-3593
nna	-3594
▁seal	-3595
▁harsh	-3596
▁pun	-3597
▁goal	-3598
▁distant	-3599
▁backpack	-3600
▁tap	-3601
ebook	-3602
inking	-3603
▁radio	-3604
▁respectful	-3605
▁vi	-3606
▁paws	-3607
▁screw	-3608
astic	-3609
ummer	-3610
▁Bunny	-3611
▁notebook	-3612
stairs	-3613
▁holes	-3614
▁ribb	-3615
▁Henry	-3616
▁unpack	-3617
▁raven	-3618
par	-3619
▁finds	-3620
▁muff	-3621
▁sent	-3622
▁separ	-3623
▁Mag	-3624
▁pushes	-3625
iskers	-3626
▁math	-3627
▁fireman	-3628
▁modest	-3629
▁stirred	-3630
▁switch	-3631
▁alligator	-3632
▁Maria	-3633
▁steps	-3634
▁stared	-3635
▁elev	-3636
orable	-3637
▁frowned	-3638
▁Whiskers	-3639
▁Harry	-3640
▁package	-3641
night	-3642
▁Charlie	-3643
▁leopard	-3644
▁sweater	-3645
▁hedge	-3646
▁avoc	-3647
▁Annie	-3648
▁pand	-3649
▁bicycle	-3650
hood	-3651
stic	-3652
▁cardboard	-3653
▁micr	-3654
▁wheat	-3655
▁lid	-3656
▁cube	-3657
ipping	-3658
▁size	-3659
▁sheet	-3660
▁elevator	-3661
▁rice	-3662
▁soar	-3663
cycle	-3664
▁Smith	-3665
▁drawings	-3666
▁fort	-3667
▁bikes	-3668
▁behave	-3669
▁jokes	-3670
▁candle	-3671
▁lightning	-3672
▁ur	-3673
▁impro	-3674
▁adorable	-3675
iastic	-3676
▁silver	-3677
▁enthusiastic	-3678
▁breat	-3679
ci	-3680
iron	-3681
▁Will	-3682
▁hive	-3683
▁bears	-3684
▁sort	-3685
▁haircut	-3686
▁exper	-3687
▁speak	-3688
gie	-3689
▁Snow	-3690
elery	-3691
▁happier	-3692
▁fle	-3693
heart	-3694
▁meat	-3695
▁dessert	-3696
▁microphone	-3697
▁Lee	-3698
come	-3699
▁sle	-3700
▁loop	-3701
▁Tr	-3702
irit	-3703
▁chain	-3704
▁quite	-3705
▁repair	-3706
▁hall	-3707
▁either	-3708
uct	-3709
aila	-3710
▁pal	-3711
ccol	-3712
▁energ	-3713
ccoli	-3714
▁stretch	-3715
▁recogn	-3716
▁troubled	-3717
Anna	-3718
▁quar	-3719
reci	-3720
▁marry	-3721
▁chalk	-3722
▁oy	-3723
▁prov	-3724
▁tripped	-3725
aulif	-3726
▁swinging	-3727
cast	-3728
▁pole	-3729
▁appreci	-3730
▁Pap	-3731
▁boots	-3732
▁riding	-3733
▁listening	-3734
▁paid	-3735
▁roared	-3736
▁jellyfish	-3737
▁gro	-3738
▁stom	-3739
ailable	-3740
▁dishes	-3741
▁golf	-3742
▁papers	-3743
▁por	-3744
▁cact	-3745
▁shovel	-3746
▁forgave	-3747
year	-3748
▁oat	-3749
▁checked	-3750
▁sandcast	-3751
▁lip	-3752
▁rescue	-3753
▁clapping	-3754
▁rod	-3755
▁shelter	-3756
eer	-3757
▁brus	-3758
▁didnâ	-3759
▁scold	-3760
▁mama	-3761
▁wallet	-3762
cond	-3763
▁bin	-3764
▁inse	-3765
▁buzz	-3766
▁second	-3767
▁available	-3768
▁sock	-3769
▁obser	-3770
▁celery	-3771
happy	-3772
▁shakes	-3773
▁pushing	-3774
▁triangle	-3775
fee	-3776
▁ink	-3777
▁eraser	-3778
▁Lilly	-3779
▁message	-3780
▁peek	-3781
▁grapes	-3782
▁palace	-3783
ffee	-3784
▁alive	-3785
▁caulif	-3786
▁trains	-3787
▁shopkeeper	-3788
▁Papa	-3789
▁trop	-3790
▁colours	-3791
▁falling	-3792
▁knot	-3793
▁feelings	-3794
▁sailor	-3795
▁point	-3796
▁broccoli	-3797
ube	-3798
▁rag	-3799
▁breaks	-3800
▁cactus	-3801
▁costume	-3802
▁country	-3803
▁lear	-3804
▁raft	-3805
▁judge	-3806
▁smells	-3807
▁spirit	-3808
olin	-3809
▁yach	-3810
▁learnt	-3811
▁tuna	-3812
▁laser	-3813
▁softly	-3814
▁summer	-3815
render	-3816
▁trophy	-3817
▁scooter	-3818
ron	-3819
▁luck	-3820
▁onion	-3821
▁shrimp	-3822
▁Jess	-3823
▁putting	-3824
▁climbing	-3825
▁ended	-3826
▁polish	-3827
▁raining	-3828
▁art	-3829
▁men	-3830
▁reind	-3831
▁crystal	-3832
▁Or	-3833
▁mild	-3834
azz	-3835
play	-3836
bul	-3837
reeze	-3838
▁starting	-3839
ucked	-3840
▁rubber	-3841
▁zoomed	-3842
▁visited	-3843
▁treasures	-3844
edy	-3845
▁basketball	-3846
ooped	-3847
▁unhappy	-3848
▁Danny	-3849
▁hoping	-3850
▁sprink	-3851
▁rolling	-3852
▁appl	-3853
▁strugg	-3854
ef	-3855
▁Would	-3856
▁energy	-3857
▁given	-3858
▁tube	-3859
▁yacht	-3860
▁ol	-3861
sist	-3862
▁laund	-3863
▁cauliflower	-3864
▁pilot	-3865
▁pipe	-3866
aled	-3867
▁ped	-3868
▁laundry	-3869
▁unlock	-3870
▁penguin	-3871
icer	-3872
▁saus	-3873
▁neighbour	-3874
▁cooler	-3875
▁hotel	-3876
▁frame	-3877
▁hadn	-3878
▁reindeer	-3879
▁flies	-3880
▁dive	-3881
▁display	-3882
▁barks	-3883
▁tricks	-3884
▁kay	-3885
▁cups	-3886
▁quit	-3887
▁belt	-3888
▁Baby	-3889
▁short	-3890
Ha	-3891
▁thanks	-3892
▁sweetheart	-3893
▁bul	-3894
ait	-3895
▁disag	-3896
▁bur	-3897
▁Inst	-3898
▁incl	-3899
ecause	-3900
▁peach	-3901
▁coffee	-3902
▁airport	-3903
sely	-3904
kelet	-3905
▁oil	-3906
▁drops	-3907
▁Maggie	-3908
▁evening	-3909
▁film	-3910
▁journal	-3911
▁sym	-3912
▁lawy	-3913
▁shade	-3914
▁throws	-3915
▁tax	-3916
▁cord	-3917
ides	-3918
▁cushion	-3919
▁stuffed	-3920
ney	-3921
▁folder	-3922
▁bulb	-3923
▁lives	-3924
▁pad	-3925
▁skill	-3926
seum	-3927
▁iron	-3928
▁marched	-3929
hino	-3930
▁photo	-3931
▁closely	-3932
pe	-3933
zzy	-3934
▁vend	-3935
▁ambul	-3936
▁bananas	-3937
▁leaned	-3938
nger	-3939
▁tub	-3940
▁panda	-3941
▁Bun	-3942
▁fisher	-3943
▁football	-3944
▁surrender	-3945
ense	-3946
▁insist	-3947
▁museum	-3948
▁planet	-3949
enny	-3950
▁strawberry	-3951
▁fauc	-3952
▁pair	-3953
▁wool	-3954
▁porch	-3955
▁counter	-3956
ges	-3957
keleton	-3958
bol	-3959
▁lend	-3960
▁diary	-3961
ito	-3962
affe	-3963
▁symbol	-3964
▁painter	-3965
▁theater	-3966
▁cherries	-3967
▁ambulance	-3968
▁taxi	-3969
▁ax	-3970
▁James	-3971
▁rhino	-3972
▁swung	-3973
ites	-3974
▁waving	-3975
▁complete	-3976
▁frogs	-3977
▁heads	-3978
▁steak	-3979
▁fields	-3980
▁faucet	-3981
▁apologized	-3982
izes	-3983
▁violin	-3984
..	-3985
▁lie	-3986
ple	-3987
ccer	-3988
mand	-3989
quito	-3990
▁forgotten	-3991
▁reef	-3992
▁insect	-3993
▁plastic	-3994
▁hut	-3995
TMm	-3996
nam	-3997
▁mule	-3998
▁cheek	-3999
ckey	-4000
▁Miss	-4001
▁page	-4002
▁hockey	-4003
▁powder	-4004
œYou	-4005
▁magaz	-4006
▁soccer	-4007
▁imagine	-4008
▁cable	-4009
▁imagination	-4010
opl	-4011
eropl	-4012
▁shouldn	-4013
▁Tony	-4014
▁lime	-4015
▁aeropl	-4016
Dad	-4017
▁mos	-4018
▁vet	-4019
▁baking	-4020
ween	-4021
▁Ted	-4022
▁winter	-4023
▁trail	-4024
▁sunset	-4025
aused	-4026
▁skeleton	-4027
▁wife	-4028
▁between	-4029
▁created	-4030
angu	-4031
▁belongs	-4032
▁giraffe	-4033
▁quarrel	-4034
▁vendor	-4035
▁langu	-4036
▁pirates	-4037
▁mosquito	-4038
any	-4039
▁soil	-4040
▁player	-4041
▁sir	-4042
ected	-4043
▁chirp	-4044
▁grocer	-4045
▁axe	-4046
▁kitty	-4047
▁rever	-4048
osie	-4049
ctory	-4050
iling	-4051
▁Instead	-4052
ories	-4053
▁points	-4054
aces	-4055
urch	-4056
ues	-4057
▁wipe	-4058
▁breeze	-4059
▁temple	-4060
▁motorcycle	-4061
▁slept	-4062
▁eagerly	-4063
▁herb	-4064
▁sneak	-4065
anic	-4066
▁yogurt	-4067
ippery	-4068
▁minute	-4069
▁factory	-4070
nament	-4071
▁shouting	-4072
▁slippery	-4073
▁attention	-4074
▁stud	-4075
▁kayak	-4076
▁lawyer	-4077
▁meeting	-4078
chair	-4079
▁blowing	-4080
▁fisherman	-4081
chanic	-4082
▁mixer	-4083
▁perfectly	-4084
▁cane	-4085
▁novel	-4086
▁ornament	-4087
▁poke	-4088
▁argue	-4089
▁seeing	-4090
▁glowing	-4091
Max	-4092
imi	-4093
▁mechanic	-4094
▁pit	-4095
▁fishing	-4096
▁sprayed	-4097
▁chickens	-4098
spap	-4099
▁seas	-4100
▁offer	-4101
imney	-4102
▁maze	-4103
▁vest	-4104
▁headed	-4105
▁newspap	-4106
men	-4107
▁twink	-4108
▁weather	-4109
▁armchair	-4110
▁napkin	-4111
▁avocado	-4112
▁donâ	-4113
▁skull	-4114
▁blankets	-4115
▁celebrated	-4116
▁rot	-4117
▁sung	-4118
▁chimney	-4119
ison	-4120
▁glove	-4121
▁hopes	-4122
place	-4123
▁itch	-4124
▁zipper	-4125
iture	-4126
▁flame	-4127
▁greedy	-4128
urniture	-4129
▁baseball	-4130
lass	-4131
▁squirrels	-4132
Your	-4133
eterin	-4134
eterinarian	-4135
aud	-4136
▁golden	-4137
▁furniture	-4138
▁flea	-4139
▁video	-4140
▁mystery	-4141
▁toil	-4142
▁moves	-4143
▁shower	-4144
▁Ab	-4145
▁Clara	-4146
▁veterinarian	-4147
ceros	-4148
▁knob	-4149
▁welcomed	-4150
▁doors	-4151
▁oyster	-4152
▁sniffed	-4153
▁petals	-4154
▁wags	-4155
▁parent	-4156
▁kingdom	-4157
▁Jul	-4158
▁follows	-4159
▁toilet	-4160
erc	-4161
▁ble	-4162
▁har	-4163
▁calls	-4164
▁happens	-4165
▁memories	-4166
▁bury	-4167
▁discu	-4168
▁freez	-4169
sing	-4170
▁mop	-4171
▁Mimi	-4172
▁God	-4173
▁junk	-4174
▁tear	-4175
▁hanging	-4176
reek	-4177
▁lawn	-4178
▁writing	-4179
▁rhinoceros	-4180
was	-4181
▁May	-4182
▁creek	-4183
▁lotion	-4184
▁applaud	-4185
mm	-4186
▁vroom	-4187
▁sticky	-4188
unately	-4189
washer	-4190
▁surround	-4191
elcome	-4192
▁reve	-4193
▁sque	-4194
▁fireplace	-4195
▁quack	-4196
▁throwing	-4197
▁miner	-4198
▁dishwasher	-4199
hero	-4200
▁Ste	-4201
▁coal	-4202
▁exerc	-4203
ler	-4204
▁trave	-4205
▁aeroplane	-4206
▁superhero	-4207
▁prun	-4208
▁medal	-4209
▁weigh	-4210
▁popped	-4211
lasses	-4212
▁passport	-4213
▁burned	-4214
▁shoulder	-4215
▁pine	-4216
▁sunglasses	-4217
tain	-4218
▁See	-4219
▁staff	-4220
▁church	-4221
▁ignored	-4222
tress	-4223
▁shrugged	-4224
▁dear	-4225
▁veil	-4226
▁mattress	-4227
▁classroom	-4228
aws	-4229
low	-4230
▁ig	-4231
▁igloo	-4232
▁bother	-4233
rosc	-4234
orses	-4235
▁grin	-4236
▁regret	-4237
iday	-4238
llie	-4239
▁cob	-4240
▁flapped	-4241
▁collected	-4242
▁agre	-4243
▁worth	-4244
▁dancer	-4245
▁crib	-4246
▁First	-4247
▁sailing	-4248
roscope	-4249
▁tug	-4250
▁since	-4251
▁horses	-4252
▁invest	-4253
▁battery	-4254
asis	-4255
ring	-4256
▁crow	-4257
una	-4258
ssible	-4259
▁mistakes	-4260
▁microscope	-4261
▁swamp	-4262
▁language	-4263
▁bouncing	-4264
▁presents	-4265
▁separate	-4266
▁oak	-4267
Timmy	-4268
▁float	-4269
▁fought	-4270
▁skirt	-4271
▁agree	-4272
▁investig	-4273
ety	-4274
▁pastry	-4275
▁streng	-4276
▁quietly	-4277
rod	-4278
web	-4279
▁Iâ	-4280
inked	-4281
right	-4282
▁oasis	-4283
Sam	-4284
case	-4285
▁inf	-4286
▁dressed	-4287
Wait	-4288
ores	-4289
▁cared	-4290
▁eaten	-4291
▁introd	-4292
▁makeup	-4293
▁stable	-4294
▁strength	-4295
▁beef	-4296
▁candles	-4297
▁True	-4298
vision	-4299
▁hol	-4300
▁blackboard	-4301
▁caring	-4302
▁holiday	-4303
▁prevent	-4304
▁magazine	-4305
▁newspaper	-4306
▁alarm	-4307
▁apart	-4308
Because	-4309
▁crawling	-4310
▁Sad	-4311
▁cobweb	-4312
▁sizes	-4313
te	-4314
medi	-4315
▁cell	-4316
▁straight	-4317
▁married	-4318
mediately	-4319
▁complain	-4320
▁scolded	-4321
ggy	-4322
▁choice	-4323
▁snap	-4324
▁coats	-4325
▁rooms	-4326
▁trusted	-4327
▁squeezed	-4328
▁investigate	-4329
▁fog	-4330
anges	-4331
▁pist	-4332
▁accepted	-4333
chie	-4334
omes	-4335
▁gym	-4336
▁pur	-4337
▁Each	-4338
▁Help	-4339
▁thumb	-4340
▁television	-4341
▁weep	-4342
▁berry	-4343
▁pistol	-4344
▁pra	-4345
▁Luck	-4346
▁radish	-4347
▁kisses	-4348
▁whisper	-4349
▁steam	-4350
▁Snowy	-4351
ction	-4352
ab	-4353
▁attach	-4354
▁shrink	-4355
▁squeeze	-4356
▁reaches	-4357
▁ticket	-4358
▁itâ	-4359
▁news	-4360
▁yield	-4361
▁puddles	-4362
▁splashing	-4363
▁appro	-4364
▁perfu	-4365
▁Luckily	-4366
▁ceiling	-4367
▁relaxed	-4368
oh	-4369
uby	-4370
▁musician	-4371
▁entered	-4372
▁amazement	-4373
▁rake	-4374
Did	-4375
▁sigh	-4376
▁unif	-4377
▁jewelry	-4378
▁blinked	-4379
▁letting	-4380
▁blood	-4381
▁Buzz	-4382
▁licks	-4383
▁teleph	-4384
▁wandered	-4385
▁birdc	-4386
▁castles	-4387
▁wigg	-4388
▁perfume	-4389
ups	-4390
sters	-4391
▁harb	-4392
▁delay	-4393
▁chairs	-4394
▁uniform	-4395
▁birdcage	-4396
mend	-4397
œItâ	-4398
▁stro	-4399
▁easily	-4400
ising	-4401
▁opera	-4402
▁yucky	-4403
▁demand	-4404
▁helper	-4405
ives	-4406
▁suff	-4407
▁firef	-4408
▁telephone	-4409
Sara	-4410
▁yoga	-4411
Thanks	-4412
house	-4413
▁hurting	-4414
And	-4415
▁Tina	-4416
▁serve	-4417
omeday	-4418
ommend	-4419
▁blueberries	-4420
hic	-4421
▁Who	-4422
▁raz	-4423
▁rise	-4424
▁bookcase	-4425
chor	-4426
▁pinch	-4427
▁freezer	-4428
▁growled	-4429
▁recommend	-4430
sit	-4431
▁requ	-4432
▁claws	-4433
▁spear	-4434
▁vehic	-4435
▁keeping	-4436
atie	-4437
▁cliff	-4438
▁sandcastle	-4439
▁grill	-4440
achel	-4441
▁bathe	-4442
▁chess	-4443
▁waffle	-4444
▁However	-4445
▁sub	-4446
▁crash	-4447
▁puzzles	-4448
▁matches	-4449
▁disappear	-4450
Is	-4451
nce	-4452
cakes	-4453
▁plates	-4454
▁tucked	-4455
▁crossed	-4456
▁mustache	-4457
▁tong	-4458
▁file	-4459
▁ward	-4460
▁surprises	-4461
▁conf	-4462
▁rail	-4463
▁harbor	-4464
▁ribbon	-4465
ival	-4466
▁hearts	-4467
▁improve	-4468
▁trade	-4469
▁planes	-4470
▁wardrobe	-4471
▁si	-4472
▁dried	-4473
▁Freddy	-4474
ived	-4475
▁tut	-4476
alley	-4477
▁mint	-4478
▁wine	-4479
▁below	-4480
▁request	-4481
▁cabinet	-4482
ionary	-4483
▁Me	-4484
▁bill	-4485
▁anchor	-4486
▁vac	-4487
raged	-4488
▁warmth	-4489
▁someday	-4490
▁toes	-4491
▁Poppy	-4492
▁razor	-4493
▁captain	-4494
ictionary	-4495
▁Fo	-4496
▁refre	-4497
▁apron	-4498
▁bleed	-4499
▁incre	-4500
▁poked	-4501
▁dictionary	-4502
amber	-4503
▁valley	-4504
▁scattered	-4505
fortunately	-4506
lier	-4507
▁waste	-4508
▁fuel	-4509
▁boot	-4510
▁pear	-4511
▁kneel	-4512
▁spade	-4513
▁skills	-4514
uch	-4515
▁mass	-4516
ucture	-4517
▁supply	-4518
▁known	-4519
▁safety	-4520
▁structure	-4521
▁People	-4522
▁blouse	-4523
ah	-4524
▁laught	-4525
▁spending	-4526
▁spots	-4527
▁lumber	-4528
▁muffin	-4529
▁lemonade	-4530
▁following	-4531
▁experience	-4532
▁instr	-4533
▁cuddled	-4534
▁dresses	-4535
€.	-4536
▁isn	-4537
▁balan	-4538
▁moments	-4539
▁Ollie	-4540
▁aut	-4541
▁Spike	-4542
▁saving	-4543
▁laughter	-4544
▁cub	-4545
▁Milly	-4546
▁Penny	-4547
▁fallen	-4548
'.	-4549
▁ideas	-4550
▁snapped	-4551
▁understanding	-4552
Yuck	-4553
▁myself	-4554
▁fastest	-4555
▁prop	-4556
▁strawberries	-4557
ampoo	-4558
▁airpl	-4559
oral	-4560
alend	-4561
▁calend	-4562
▁tornado	-4563
▁fest	-4564
▁raise	-4565
▁row	-4566
▁worms	-4567
▁jewels	-4568
▁missile	-4569
▁calendar	-4570
▁remove	-4571
▁sneeze	-4572
▁flutter	-4573
▁lugg	-4574
▁Liz	-4575
icing	-4576
▁beans	-4577
▁buried	-4578
▁luggage	-4579
aped	-4580
▁taller	-4581
▁yawned	-4582
▁weap	-4583
▁immediately	-4584
riger	-4585
▁bravely	-4586
▁ringing	-4587
▁sparkling	-4588
▁enter	-4589
rigerator	-4590
▁begged	-4591
▁reverse	-4592
▁refrigerator	-4593
▁bumped	-4594
▁earlier	-4595
▁shampoo	-4596
ero	-4597
▁hits	-4598
▁root	-4599
▁bookshe	-4600
▁rabbits	-4601
▁destroyed	-4602
▁Joy	-4603
▁ignore	-4604
▁infant	-4605
▁port	-4606
▁settled	-4607
▁lic	-4608
Welcome	-4609
▁hardly	-4610
▁dire	-4611
▁appreciate	-4612
vet	-4613
▁gear	-4614
▁homes	-4615
▁beamed	-4616
▁washing	-4617
▁rhy	-4618
htray	-4619
▁Have	-4620
▁ashtray	-4621
▁destination	-4622
▁socks	-4623
▁Co	-4624
rm	-4625
▁Its	-4626
▁chores	-4627
▁climbs	-4628
▁chamber	-4629
▁prepare	-4630
anna	-4631
▁tore	-4632
▁signs	-4633
▁hanger	-4634
▁pages	-4635
▁breathe	-4636
▁remain	-4637
▁tutor	-4638
▁cherry	-4639
▁therm	-4640
▁replace	-4641
▁sparkle	-4642
▁palm	-4643
▁invite	-4644
ission	-4645
▁plays	-4646
▁universe	-4647
▁vanished	-4648
▁decorations	-4649
eady	-4650
reat	-4651
▁tide	-4652
▁Betsy	-4653
ari	-4654
▁solved	-4655
▁praised	-4656
▁Everyday	-4657
▁permission	-4658
inky	-4659
▁pride	-4660
▁vacation	-4661
▁tongue	-4662
▁bookshelf	-4663
bbie	-4664
▁admir	-4665
▁hills	-4666
▁poison	-4667
▁deeper	-4668
▁sits	-4669
▁scooped	-4670
▁score	-4671
▁examine	-4672
▁stomach	-4673
▁sparkles	-4674
nies	-4675
▁festival	-4676
▁thermomet	-4677
▁insisted	-4678
▁teaching	-4679
omob	-4680
▁Nut	-4681
▁floated	-4682
▁quiz	-4683
▁Steve	-4684
▁crunch	-4685
▁scratch	-4686
bbles	-4687
▁Good	-4688
▁alright	-4689
▁automob	-4690
osed	-4691
▁simp	-4692
xture	-4693
▁mailman	-4694
▁received	-4695
▁difference	-4696
ops	-4697
▁daisy	-4698
▁believed	-4699
▁chirping	-4700
▁thermometer	-4701
▁bang	-4702
▁digg	-4703
▁panic	-4704
▁oranges	-4705
▁floating	-4706
▁patiently	-4707
ents	-4708
▁struggling	-4709
Sp	-4710
▁achie	-4711
▁pulling	-4712
▁digging	-4713
asp	-4714
▁Is	-4715
▁drain	-4716
▁punish	-4717
▁license	-4718
emy	-4719
▁hers	-4720
▁model	-4721
▁ranch	-4722
thm	-4723
▁provide	-4724
▁sty	-4725
▁dare	-4726
▁repeat	-4727
▁upstairs	-4728
Ok	-4729
▁Mat	-4730
▁gifts	-4731
▁buzzing	-4732
▁measured	-4733
▁encouraged	-4734
▁Chirp	-4735
▁restore	-4736
antly	-4737
igail	-4738
▁shooting	-4739
▁jail	-4740
▁collection	-4741
▁neighborhood	-4742
▁glo	-4743
▁invit	-4744
▁guy	-4745
▁brain	-4746
▁rhythm	-4747
▁bathrobe	-4748
iers	-4749
▁bites	-4750
▁equ	-4751
▁none	-4752
▁respons	-4753
bey	-4754
TMre	-4755
osity	-4756
sity	-4757
▁includ	-4758
ging	-4759
▁sew	-4760
▁sausage	-4761
▁collecting	-4762
▁shot	-4763
▁grape	-4764
▁label	-4765
▁patterns	-4766
▁worse	-4767
▁subway	-4768
▁approached	-4769
rise	-4770
▁Abigail	-4771
▁discuss	-4772
▁mention	-4773
allen	-4774
izard	-4775
▁mall	-4776
▁weeks	-4777
▁elephants	-4778
▁whip	-4779
▁tease	-4780
▁massage	-4781
Mmm	-4782
▁jazz	-4783
▁spaces	-4784
▁sprinkles	-4785
▁sore	-4786
▁melted	-4787
xy	-4788
TMll	-4789
▁Fro	-4790
▁challen	-4791
▁setting	-4792
▁supposed	-4793
▁sip	-4794
▁shed	-4795
act	-4796
▁buckle	-4797
These	-4798
▁unite	-4799
▁sunrise	-4800
▁billboard	-4801
▁girls	-4802
▁bricks	-4803
▁twisted	-4804
ium	-4805
▁leak	-4806
▁oper	-4807
▁exercise	-4808
▁flav	-4809
▁item	-4810
▁spit	-4811
▁meowed	-4812
▁airplane	-4813
▁vehicle	-4814
▁parts	-4815
▁wizard	-4816
allow	-4817
▁discovery	-4818
▁jogging	-4819
▁watches	-4820
▁soldiers	-4821
atch	-4822
▁fut	-4823
▁hesit	-4824
▁bak	-4825
fied	-4826
▁future	-4827
▁poppy	-4828
▁pillows	-4829
shing	-4830
▁glowed	-4831
▁automobile	-4832
▁grey	-4833
▁hate	-4834
ude	-4835
▁university	-4836
▁marbles	-4837
▁gust	-4838
aspoon	-4839
▁sport	-4840
gy	-4841
▁pigs	-4842
▁mister	-4843
▁grocery	-4844
▁teaspoon	-4845
▁whistled	-4846
▁rush	-4847
▁brings	-4848
▁fixing	-4849
▁awe	-4850
▁gain	-4851
▁event	-4852
▁actually	-4853
▁heat	-4854
▁urge	-4855
▁manage	-4856
▁lets	-4857
▁warning	-4858
nfortunately	-4859
▁suffer	-4860
▁scratched	-4861
▁beg	-4862
▁burning	-4863
▁remained	-4864
▁thrilled	-4865
Not	-4866
asc	-4867
cles	-4868
▁seats	-4869
▁slice	-4870
▁grinned	-4871
œNo	-4872
ases	-4873
▁Jam	-4874
▁growl	-4875
▁paused	-4876
▁surrounded	-4877
umble	-4878
▁problems	-4879
adium	-4880
▁lick	-4881
▁Nutty	-4882
▁sings	-4883
▁stadium	-4884
▁Je	-4885
▁chir	-4886
▁works	-4887
▁zipped	-4888
bers	-4889
Would	-4890
▁Sharing	-4891
▁toe	-4892
▁chirped	-4893
ishing	-4894
▁spill	-4895
▁Someone	-4896
▁nation	-4897
▁weapon	-4898
▁twigs	-4899
▁drinks	-4900
▁drinking	-4901
Ouch	-4902
emember	-4903
▁whistling	-4904
▁Cat	-4905
▁rust	-4906
▁scur	-4907
▁cakes	-4908
▁racing	-4909
▁ordered	-4910
▁possible	-4911
▁eff	-4912
▁beat	-4913
▁hurric	-4914
▁strang	-4915
▁tracks	-4916
▁observe	-4917
eed	-4918
▁lect	-4919
▁receive	-4920
▁tour	-4921
▁during	-4922
▁paints	-4923
▁prayed	-4924
▁sneezed	-4925
▁marching	-4926
▁Luna	-4927
▁waffles	-4928
▁laid	-4929
▁watered	-4930
▁decision	-4931
▁ours	-4932
▁hated	-4933
▁memory	-4934
▁sliding	-4935
▁x	-4936
!",	-4937
▁El	-4938
cious	-4939
▁wherever	-4940
▁contain	-4941
▁lecture	-4942
▁potatoes	-4943
▁waits	-4944
▁raised	-4945
▁crunchy	-4946
▁spaceship	-4947
▁petted	-4948
▁screams	-4949
▁cartoons	-4950
▁hurricane	-4951
▁invitation	-4952
!'	-4953
▁earthqu	-4954
▁spoons	-4955
▁crashed	-4956
▁olive	-4957
▁satis	-4958
▁lily	-4959
▁warn	-4960
ncle	-4961
fy	-4962
walk	-4963
ities	-4964
▁fasc	-4965
▁flood	-4966
▁peanuts	-4967
▁skipping	-4968
▁strangers	-4969
▁tomatoes	-4970
▁fed	-4971
▁swims	-4972
▁curled	-4973
▁operation	-4974
oved	-4975
▁mitten	-4976
▁fireworks	-4977
▁pupp	-4978
▁sunlight	-4979
œThatâ	-4980
▁mineral	-4981
▁recognized	-4982
cc	-4983
do	-4984
▁Not	-4985
▁beds	-4986
▁strip	-4987
▁measuring	-4988
hest	-4989
▁vel	-4990
▁chewed	-4991
▁circus	-4992
▁Jan	-4993
▁velvet	-4994
▁disagreed	-4995
nday	-4996
▁Anne	-4997
▁Sunday	-4998
▁safari	-4999
Sh	-5000
▁remem	-5001
▁planted	-5002
Yum	-5003
▁Frank	-5004
▁Chirpy	-5005
▁kindly	-5006
▁remembers	-5007
ipment	-5008
▁lands	-5009
▁mouths	-5010
▁talent	-5011
▁continue	-5012
▁price	-5013
▁easier	-5014
▁admiring	-5015
▁sidewalk	-5016
▁buildings	-5017
▁equipment	-5018
▁wond	-5019
mother	-5020
▁brick	-5021
▁comfy	-5022
▁monsters	-5023
œIâ	-5024
▁bes	-5025
▁secrets	-5026
bbled	-5027
▁fascin	-5028
▁attached	-5029
eally	-5030
▁meow	-5031
▁appear	-5032
▁mountains	-5033
▁flap	-5034
▁tremb	-5035
▁glitter	-5036
▁happiest	-5037
▁fet	-5038
▁escaped	-5039
▁blueberry	-5040
▁folded	-5041
▁refreshed	-5042
▁bones	-5043
▁effort	-5044
▁clearing	-5045
seek	-5046
▁Chr	-5047
▁Letâ	-5048
▁selling	-5049
",	-5050
▁wre	-5051
▁company	-5052
▁bringing	-5053
son	-5054
▁gaz	-5055
▁Josh	-5056
▁prepared	-5057
▁apologize	-5058
▁Sadly	-5059
▁gloves	-5060
▁revealed	-5061
▁earthquake	-5062
▁Ol	-5063
▁Moral	-5064
▁officer	-5065
▁An	-5066
▁lips	-5067
▁beside	-5068
▁wid	-5069
▁navy	-5070
▁obey	-5071
▁weren	-5072
▁onwards	-5073
▁trapped	-5074
▁turning	-5075
▁bleeding	-5076
▁copper	-5077
▁simple	-5078
▁anytime	-5079
▁menu	-5080
▁doggy	-5081
▁weight	-5082
▁six	-5083
▁muddy	-5084
▁guessed	-5085
▁leather	-5086
▁stripes	-5087
enty	-5088
▁reminder	-5089
▁ladyb	-5090
▁precious	-5091
▁pets	-5092
▁wanting	-5093
▁dinosaurs	-5094
▁waist	-5095
▁slip	-5096
▁Sunny	-5097
zag	-5098
▁gotten	-5099
▁succeeded	-5100
▁Chl	-5101
▁bye	-5102
▁hist	-5103
▁allow	-5104
▁Jamie	-5105
▁steel	-5106
▁history	-5107
▁catching	-5108
aded	-5109
▁keeper	-5110
▁settle	-5111
▁By	-5112
▁peered	-5113
▁firefight	-5114
Spot	-5115
Will	-5116
▁Dav	-5117
▁Beth	-5118
▁cuddle	-5119
▁brand	-5120
To	-5121
▁oats	-5122
œWe	-5123
joyed	-5124
▁fash	-5125
▁served	-5126
▁villag	-5127
▁everyday	-5128
▁overjoyed	-5129
▁freeze	-5130
idges	-5131
▁Chloe	-5132
▁wisdom	-5133
▁Tiny	-5134
▁pies	-5135
▁scoop	-5136
▁gained	-5137
œThank	-5138
▁style	-5139
▁Floppy	-5140
▁permit	-5141
▁rested	-5142
▁rained	-5143
▁perched	-5144
▁eats	-5145
▁pedal	-5146
▁soared	-5147
▁Sure	-5148
▁David	-5149
▁cutting	-5150
▁wonders	-5151
▁image	-5152
▁tastes	-5153
▁shopping	-5154
▁bowed	-5155
▁eagle	-5156
▁printer	-5157
▁comforted	-5158
One	-5159
igzag	-5160
amb	-5161
▁Am	-5162
▁pupil	-5163
▁wooden	-5164
▁shadows	-5165
▁rang	-5166
▁bridges	-5167
▁voices	-5168
▁answers	-5169
▁snowball	-5170
▁whatever	-5171
▁Lucky	-5172
▁famil	-5173
▁acorns	-5174
rs	-5175
mble	-5176
▁Big	-5177
▁stealing	-5178
▁fashion	-5179
▁visiting	-5180
anta	-5181
▁drag	-5182
▁decides	-5183
▁hurried	-5184
▁costumes	-5185
▁bene	-5186
▁Spark	-5187
▁stitch	-5188
▁brushed	-5189
▁Something	-5190
▁agreement	-5191
▁writes	-5192
▁downstairs	-5193
oming	-5194
▁emerg	-5195
▁breaking	-5196
ien	-5197
nie	-5198
▁Nina	-5199
▁crept	-5200
▁nails	-5201
len	-5202
▁exact	-5203
▁creation	-5204
▁struggled	-5205
▁villagers	-5206
▁responsible	-5207
▁Hanna	-5208
▁Hoppy	-5209
▁twirling	-5210
▁ripped	-5211
▁beneath	-5212
▁sadness	-5213
▁curiosity	-5214
▁disturbed	-5215
▁Pr	-5216
ding	-5217
icorn	-5218
▁emergen	-5219
▁unicorn	-5220
▁underground	-5221
▁pitch	-5222
▁bun	-5223
▁tip	-5224
izing	-5225
neath	-5226
▁tremble	-5227
▁weighed	-5228
▁mice	-5229
▁Julie	-5230
▁These	-5231
▁pancakes	-5232
▁accidents	-5233
▁Lu	-5234
gen	-5235
▁Suzy	-5236
▁chef	-5237
▁comple	-5238
▁Bubbles	-5239
▁firemen	-5240
▁practicing	-5241
ays	-5242
▁Car	-5243
▁Santa	-5244
iggy	-5245
isten	-5246
▁Betty	-5247
▁neighbors	-5248
terday	-5249
▁examined	-5250
▁vict	-5251
xygen	-5252
▁Tilly	-5253
▁doctors	-5254
▁grandmother	-5255
▁bare	-5256
▁argued	-5257
▁lemons	-5258
▁decorated	-5259
ira	-5260
▁Lul	-5261
▁died	-5262
▁begin	-5263
▁claps	-5264
▁knelt	-5265
▁rides	-5266
▁network	-5267
▁spiders	-5268
▁padd	-5269
▁owned	-5270
▁Pip	-5271
▁Like	-5272
▁soak	-5273
▁sting	-5274
▁Cla	-5275
▁ladybug	-5276
▁recognize	-5277
ales	-5278
▁realize	-5279
▁beha	-5280
▁peel	-5281
▁activ	-5282
▁yelling	-5283
rr	-5284
ishes	-5285
▁area	-5286
▁bend	-5287
▁Jessie	-5288
anny	-5289
▁inch	-5290
▁zero	-5291
▁keeps	-5292
Goodbye	-5293
▁Mil	-5294
▁rele	-5295
▁pinched	-5296
She	-5297
▁Ad	-5298
▁situ	-5299
▁prune	-5300
▁mission	-5301
▁encourage	-5302
uing	-5303
ashed	-5304
▁snail	-5305
va	-5306
ffic	-5307
▁keys	-5308
▁winning	-5309
rol	-5310
▁exit	-5311
▁ruin	-5312
▁wondering	-5313
▁Bir	-5314
▁Yes	-5315
▁accom	-5316
▁jogged	-5317
▁exactly	-5318
▁traffic	-5319
▁wagging	-5320
ley	-5321
mare	-5322
▁Abby	-5323
▁olives	-5324
▁studied	-5325
▁zooming	-5326
▁stirring	-5327
▁For	-5328
▁tune	-5329
▁lines	-5330
▁loose	-5331
▁pastel	-5332
▁zigzag	-5333
riage	-5334
▁cape	-5335
▁sneaked	-5336
▁wreck	-5337
▁tugged	-5338
▁release	-5339
▁satisfied	-5340
ib	-5341
▁eight	-5342
▁siren	-5343
▁oxygen	-5344
▁bunnies	-5345
▁tickets	-5346
looking	-5347
gers	-5348
▁unlocked	-5349
▁underneath	-5350
Or	-5351
Daddy	-5352
▁ago	-5353
▁challenge	-5354
Ye	-5355
▁honk	-5356
▁outdo	-5357
▁Claire	-5358
▁landsc	-5359
▁buckets	-5360
▁slapped	-5361
▁instruct	-5362
▁nightmare	-5363
▁fascinated	-5364
▁caut	-5365
▁nicer	-5366
▁accompl	-5367
▁web	-5368
▁Stop	-5369
▁shivering	-5370
▁Mart	-5371
▁loving	-5372
▁pockets	-5373
▁stretching	-5374
▁piles	-5375
▁Hannah	-5376
▁punished	-5377
▁Carl	-5378
▁dent	-5379
▁solut	-5380
▁mittens	-5381
▁planned	-5382
▁protected	-5383
▁neighbourhood	-5384
zen	-5385
▁competition	-5386
▁Lulu	-5387
▁draws	-5388
▁properly	-5389
▁gathering	-5390
▁items	-5391
▁Afterwards	-5392
▁Ha	-5393
abbit	-5394
▁control	-5395
▁supplies	-5396
▁emergency	-5397
▁Thom	-5398
▁lied	-5399
▁shoulders	-5400
indy	-5401
▁parked	-5402
▁travell	-5403
▁Mad	-5404
▁sights	-5405
▁Susan	-5406
▁soaring	-5407
▁landscape	-5408
ik	-5409
œCan	-5410
▁perfor	-5411
▁markers	-5412
kins	-5413
œDon	-5414
▁Itâ	-5415
▁Coco	-5416
▁deser	-5417
▁fetch	-5418
▁pearl	-5419
▁ruler	-5420
uack	-5421
▁Out	-5422
▁bouncy	-5423
▁frosting	-5424
ica	-5425
▁ann	-5426
▁struck	-5427
▁touching	-5428
▁instructions	-5429
ayla	-5430
▁burrow	-5431
.'	-5432
Happy	-5433
▁Matt	-5434
▁loaded	-5435
▁peaches	-5436
▁printed	-5437
inda	-5438
▁sisters	-5439
thank	-5440
▁foods	-5441
▁barely	-5442
▁muscles	-5443
▁introduc	-5444
œLook	-5445
▁marks	-5446
over	-5447
bbing	-5448
▁opin	-5449
▁crumb	-5450
▁drift	-5451
▁stole	-5452
▁mixing	-5453
▁victory	-5454
▁increase	-5455
▁dam	-5456
agull	-5457
▁tonight	-5458
▁rainbows	-5459
▁applauded	-5460
▁mast	-5461
▁budge	-5462
▁frozen	-5463
▁silence	-5464
ury	-5465
bric	-5466
▁east	-5467
▁sides	-5468
▁fabric	-5469
▁rocked	-5470
▁strings	-5471
▁Did	-5472
▁Thomas	-5473
▁ourselves	-5474
Mama	-5475
▁rubbing	-5476
▁teasing	-5477
▁vent	-5478
▁giggling	-5479
▁guns	-5480
▁soaked	-5481
▁Mira	-5482
▁seagull	-5483
▁outdoors	-5484
aky	-5485
ena	-5486
udy	-5487
▁bank	-5488
▁planets	-5489
tiest	-5490
▁released	-5491
▁completed	-5492
▁prettiest	-5493
edding	-5494
uesday	-5495
▁chases	-5496
▁bottles	-5497
▁brushes	-5498
▁dragons	-5499
▁pouring	-5500
▁scurried	-5501
▁sweeties	-5502
▁bunch	-5503
▁pears	-5504
▁vowed	-5505
▁prints	-5506
▁season	-5507
oed	-5508
▁west	-5509
▁stair	-5510
▁movies	-5511
▁purred	-5512
▁Tuesday	-5513
▁surface	-5514
bies	-5515
▁Hop	-5516
▁tim	-5517
▁poking	-5518
▁bloomed	-5519
▁demanded	-5520
nes	-5521
▁letâ	-5522
▁baked	-5523
▁tickle	-5524
▁introduce	-5525
ux	-5526
ateri	-5527
▁steep	-5528
▁materi	-5529
▁camping	-5530
▁discovering	-5531
▁broom	-5532
imy	-5533
▁Jeff	-5534
▁sighs	-5535
▁winner	-5536
uctantly	-5537
▁dragged	-5538
▁muffins	-5539
Ex	-5540
▁Jon	-5541
ednes	-5542
▁babies	-5543
ednesday	-5544
▁catches	-5545
▁urged	-5546
▁machines	-5547
▁Wednesday	-5548
▁mentioned	-5549
Mia	-5550
eep	-5551
zie	-5552
▁Gr	-5553
▁lux	-5554
▁Slow	-5555
▁da	-5556
icked	-5557
œThis	-5558
œHello	-5559
▁herbs	-5560
▁beard	-5561
▁roaring	-5562
▁singer	-5563
▁confident	-5564
▁screaming	-5565
ora	-5566
▁guys	-5567
▁Jenna	-5568
▁cones	-5569
▁project	-5570
▁interest	-5571
▁Lou	-5572
▁drives	-5573
▁stamps	-5574
▁horns	-5575
avi	-5576
jam	-5577
▁powers	-5578
▁pretends	-5579
▁Jones	-5580
▁texture	-5581
though	-5582
▁passing	-5583
ern	-5584
▁crowd	-5585
▁contest	-5586
ason	-5587
▁Both	-5588
▁chips	-5589
▁goals	-5590
▁wound	-5591
▁ranger	-5592
▁ribbons	-5593
▁studying	-5594
▁balancing	-5595
Ah	-5596
▁Adam	-5597
▁expect	-5598
▁result	-5599
▁matched	-5600
▁disagree	-5601
▁sausages	-5602
▁pout	-5603
▁Lizzy	-5604
▁sorted	-5605
▁marriage	-5606
▁curly	-5607
▁highest	-5608
▁cal	-5609
▁Pipp	-5610
▁gazed	-5611
▁suitc	-5612
▁kicking	-5613
▁pebbles	-5614
▁cuts	-5615
▁forgi	-5616
▁shock	-5617
▁patience	-5618
▁reluctantly	-5619
▁shelves	-5620
▁shivered	-5621
▁chat	-5622
▁strike	-5623
▁hugging	-5624
▁repeated	-5625
▁ge	-5626
▁Linda	-5627
fit	-5628
uly	-5629
▁youth	-5630
▁waiter	-5631
▁curtains	-5632
▁acted	-5633
▁fault	-5634
▁sway	-5635
▁grant	-5636
▁wedding	-5637
▁flags	-5638
▁plenty	-5639
die	-5640
▁Luke	-5641
▁figured	-5642
▁ti	-5643
▁Bye	-5644
▁Cindy	-5645
▁Always	-5646
▁matching	-5647
▁goodnight	-5648
exp	-5649
Somet	-5650
▁threat	-5651
▁paintings	-5652
▁twinkling	-5653
▁fart	-5654
▁outfit	-5655
▁cautious	-5656
▁included	-5657
eezing	-5658
▁dusty	-5659
▁slimy	-5660
▁chewing	-5661
▁policeman	-5662
▁regretted	-5663
Joh	-5664
esome	-5665
▁entire	-5666
▁sweets	-5667
▁solution	-5668
▁introduced	-5669
▁Mon	-5670
▁theirs	-5671
▁towels	-5672
▁sorting	-5673
▁blooming	-5674
▁penguins	-5675
▁situation	-5676
irts	-5677
ledge	-5678
usted	-5679
▁thro	-5680
expected	-5681
▁recorded	-5682
▁guest	-5683
▁stare	-5684
▁Slowly	-5685
▁throat	-5686
▁include	-5687
you	-5688
ults	-5689
ivery	-5690
▁flat	-5691
▁achieve	-5692
▁rocking	-5693
hins	-5694
▁unexpected	-5695
bl	-5696
mas	-5697
bert	-5698
▁heel	-5699
▁Christ	-5700
▁knowledge	-5701
▁Lizz	-5702
▁Milo	-5703
▁canâ	-5704
▁Suzie	-5705
▁prunes	-5706
▁dentist	-5707
igi	-5708
▁blink	-5709
▁agrees	-5710
▁rescued	-5711
▁cheering	-5712
▁sticking	-5713
▁librarian	-5714
cuse	-5715
▁snugg	-5716
▁truly	-5717
▁staring	-5718
▁spraying	-5719
...	-5720
jamas	-5721
▁roots	-5722
▁luxury	-5723
▁awesome	-5724
vin	-5725
Yeah	-5726
œDonâ	-5727
▁completely	-5728
iar	-5729
hell	-5730
▁ast	-5731
itely	-5732
▁caused	-5733
▁written	-5734
▁homework	-5735
▁Aunt	-5736
▁motion	-5737
▁lap	-5738
▁uses	-5739
▁learns	-5740
▁arguing	-5741
▁growling	-5742
▁boom	-5743
▁creating	-5744
▁Christmas	-5745
▁zookeeper	-5746
▁importance	-5747
Al	-5748
Excuse	-5749
▁Lizzie	-5750
▁bravery	-5751
▁trembling	-5752
▁wandering	-5753
hello	-5754
▁Jazz	-5755
▁exha	-5756
▁dared	-5757
▁roads	-5758
▁shined	-5759
uick	-5760
▁Mel	-5761
▁slap	-5762
▁scales	-5763
▁workers	-5764
▁crackers	-5765
▁delivery	-5766
go	-5767
oys	-5768
njoy	-5769
▁rolls	-5770
▁arrive	-5771
▁direction	-5772
œOh	-5773
immer	-5774
▁Tess	-5775
▁safer	-5776
▁reaching	-5777
▁replac	-5778
▁kneeled	-5779
asm	-5780
▁bead	-5781
▁belly	-5782
▁Nick	-5783
▁comm	-5784
▁scra	-5785
▁wires	-5786
▁snakes	-5787
▁struggle	-5788
boat	-5789
▁expected	-5790
▁exhausted	-5791
▁healed	-5792
▁ventured	-5793
▁organizing	-5794
Gra	-5795
opes	-5796
▁mane	-5797
▁wink	-5798
Mum	-5799
une	-5800
▁Gigi	-5801
lowers	-5802
▁greet	-5803
▁crumbs	-5804
▁becoming	-5805
lee	-5806
▁Ex	-5807
Mummy	-5808
ences	-5809
▁Lena	-5810
▁lamb	-5811
▁Leave	-5812
▁crabs	-5813
▁usual	-5814
▁flames	-5815
▁dolphins	-5816
oline	-5817
▁Johnson	-5818
▁pajamas	-5819
▁inviting	-5820
▁Mick	-5821
angled	-5822
▁leader	-5823
▁worries	-5824
irm	-5825
When	-5826
▁Two	-5827
▁owners	-5828
▁united	-5829
▁storekeeper	-5830
▁Ma	-5831
œWhy	-5832
▁Buzzy	-5833
▁Pandy	-5834
▁baker	-5835
▁relief	-5836
▁packing	-5837
▁pencils	-5838
▁heav	-5839
John	-5840
▁Dolly	-5841
▁Happy	-5842
▁Y	-5843
▁boo	-5844
▁firm	-5845
▁pots	-5846
▁Julia	-5847
▁timer	-5848
▁traveled	-5849
▁polishing	-5850
▁cash	-5851
▁fairies	-5852
▁suitcase	-5853
▁Nan	-5854
▁youâ	-5855
▁closes	-5856
▁cough	-5857
▁partic	-5858
▁worker	-5859
▁rockets	-5860
▁Momo	-5861
▁trips	-5862
▁direct	-5863
▁patted	-5864
▁vanish	-5865
▁peeking	-5866
▁radishes	-5867
Just	-5868
▁seems	-5869
▁wasnâ	-5870
▁prayer	-5871
▁valued	-5872
▁quacked	-5873
▁Fox	-5874
▁Finn	-5875
▁fara	-5876
▁misses	-5877
▁faraway	-5878
▁startled	-5879
vers	-5880
iding	-5881
▁cent	-5882
▁countryside	-5883
▁itchy	-5884
▁Friend	-5885
▁photos	-5886
▁melting	-5887
▁flavor	-5888
▁Jessica	-5889
▁usually	-5890
▁groceries	-5891
▁reveal	-5892
▁wiggled	-5893
Sometimes	-5894
▁restored	-5895
▁interested	-5896
▁cans	-5897
▁fuzzy	-5898
▁stern	-5899
▁removed	-5900
▁balanced	-5901
ords	-5902
▁Che	-5903
▁Tara	-5904
▁scru	-5905
▁Being	-5906
▁seesaw	-5907
▁knights	-5908
▁resting	-5909
▁stem	-5910
▁chuck	-5911
▁opening	-5912
▁teaches	-5913
Bad	-5914
Fine	-5915
▁risk	-5916
▁wrist	-5917
▁winked	-5918
▁cracked	-5919
▁opinion	-5920
ids	-5921
▁cous	-5922
▁leap	-5923
▁desert	-5924
▁sneaky	-5925
▁everybody	-5926
obby	-5927
▁rubs	-5928
▁hissed	-5929
▁twinkle	-5930
▁observed	-5931
pite	-5932
▁unf	-5933
▁cott	-5934
▁sled	-5935
▁cause	-5936
▁particular	-5937
▁den	-5938
▁lined	-5939
▁poems	-5940
▁roses	-5941
▁seven	-5942
▁pastels	-5943
▁princesses	-5944
▁Follow	-5945
▁signed	-5946
▁tickled	-5947
▁Jac	-5948
▁faced	-5949
▁tractor	-5950
▁activities	-5951
▁magnets	-5952
brush	-5953
▁swooped	-5954
▁seashell	-5955
▁snowballs	-5956
dies	-5957
rance	-5958
▁Doggy	-5959
▁reply	-5960
▁silent	-5961
▁wasted	-5962
umm	-5963
▁cubes	-5964
▁rings	-5965
▁adding	-5966
▁single	-5967
▁staying	-5968
▁beads	-5969
▁coloured	-5970
▁replaced	-5971
▁sandcastles	-5972
▁hi	-5973
▁kites	-5974
▁swirl	-5975
▁marker	-5976
▁stolen	-5977
▁provided	-5978
▁firefighters	-5979
▁Sorry	-5980
▁Sophia	-5981
▁remote	-5982
▁farther	-5983
▁however	-5984
▁tricked	-5985
▁Put	-5986
isies	-5987
▁Larry	-5988
▁freed	-5989
▁ga	-5990
Then	-5991
▁Emmy	-5992
▁naps	-5993
▁daisies	-5994
▁lung	-5995
œWhatâ	-5996
▁wears	-5997
▁dipped	-5998
▁paddled	-5999
▁lollipops	-6000
▁bowls	-6001
▁spike	-6002
▁cashier	-6003
▁Days	-6004
▁Earth	-6005
▁Jacob	-6006
▁colored	-6007
▁pastries	-6008
▁Enjoy	-6009
▁badge	-6010
ctar	-6011
▁nectar	-6012
▁sobbed	-6013
▁Without	-6014
▁celebration	-6015
▁Ow	-6016
coat	-6017
▁Many	-6018
▁logs	-6019
▁slam	-6020
œMommy	-6021
▁minerals	-6022
▁Everybody	-6023
▁protecting	-6024
▁aff	-6025
▁copy	-6026
▁liqu	-6027
▁Jacky	-6028
▁awake	-6029
▁marked	-6030
▁stroll	-6031
▁tallest	-6032
▁darkness	-6033
▁squealed	-6034
▁ty	-6035
▁bumpy	-6036
▁smiley	-6037
▁filling	-6038
▁forehead	-6039
▁splashes	-6040
abel	-6041
▁Bess	-6042
▁robb	-6043
▁snat	-6044
▁wipes	-6045
▁helmets	-6046
▁talented	-6047
bbly	-6048
hile	-6049
▁Maya	-6050
▁gems	-6051
▁twin	-6052
▁masks	-6053
▁younger	-6054
▁cautiously	-6055
aty	-6056
tle	-6057
▁gaze	-6058
▁stays	-6059
▁Nothing	-6060
▁glasses	-6061
▁yourselves	-6062
yond	-6063
▁wow	-6064
▁blows	-6065
▁reads	-6066
▁beyond	-6067
▁covers	-6068
▁polished	-6069
▁raincoat	-6070
▁explorers	-6071
▁directions	-6072
▁tipt	-6073
▁health	-6074
boo	-6075
ddled	-6076
▁cust	-6077
▁Watch	-6078
▁Water	-6079
▁attack	-6080
▁actions	-6081
▁listens	-6082
▁Exc	-6083
▁Squ	-6084
▁miles	-6085
▁entrance	-6086
▁sailboat	-6087
▁fluttered	-6088
▁accomplish	-6089
▁behavi	-6090
▁pedals	-6091
▁chuckled	-6092
▁families	-6093
hee	-6094
▁Get	-6095
▁dots	-6096
▁refle	-6097
▁clowns	-6098
▁secure	-6099
▁mushrooms	-6100
▁yesterday	-6101
fl	-6102
▁knees	-6103
▁tricky	-6104
▁somebody	-6105
▁speaking	-6106
sty	-6107
cers	-6108
affes	-6109
▁bars	-6110
▁buying	-6111
▁custom	-6112
▁joking	-6113
▁seeker	-6114
▁Excited	-6115
iki	-6116
▁opp	-6117
▁conn	-6118
▁ripe	-6119
▁Pinky	-6120
▁hider	-6121
▁insects	-6122
ppers	-6123
▁bumps	-6124
▁froze	-6125
▁cheeks	-6126
▁knocks	-6127
▁Olive	-6128
▁parties	-6129
▁giraffes	-6130
▁beginning	-6131
ners	-6132
▁Jay	-6133
▁mes	-6134
▁liquid	-6135
▁mesmer	-6136
▁Lau	-6137
▁Lia	-6138
Tommy	-6139
itches	-6140
▁thorn	-6141
▁scaring	-6142
▁pleasure	-6143
▁determination	-6144
uzz	-6145
▁mi	-6146
▁Bird	-6147
▁Mikey	-6148
▁backed	-6149
▁videos	-6150
▁candies	-6151
▁folding	-6152
▁handful	-6153
▁scarves	-6154
▁drums	-6155
▁Sparky	-6156
▁paddle	-6157
▁leading	-6158
▁recording	-6159
oar	-6160
Jack	-6161
iles	-6162
ouch	-6163
▁deal	-6164
▁mixture	-6165
▁pause	-6166
▁arrows	-6167
▁glee	-6168
▁choices	-6169
▁instrum	-6170
▁tangled	-6171
alph	-6172
band	-6173
Those	-6174
obert	-6175
▁tasks	-6176
▁lighter	-6177
▁weeping	-6178
▁lower	-6179
▁piggy	-6180
▁sense	-6181
▁yells	-6182
▁pouted	-6183
▁improved	-6184
▁recommended	-6185
▁Mo	-6186
urry	-6187
igers	-6188
▁click	-6189
▁calmed	-6190
eke	-6191
ths	-6192
▁Far	-6193
▁rusty	-6194
▁cupcakes	-6195
lay	-6196
▁insp	-6197
▁Laura	-6198
▁fever	-6199
▁salty	-6200
▁paying	-6201
▁def	-6202
arter	-6203
arling	-6204
▁steer	-6205
▁bakery	-6206
▁snatched	-6207
▁Cu	-6208
vest	-6209
▁Prin	-6210
▁rumble	-6211
▁bedtime	-6212
▁ruining	-6213
▁Amel	-6214
▁diving	-6215
▁widened	-6216
▁hesitated	-6217
▁celebrating	-6218
icky	-6219
indr	-6220
▁Gina	-6221
▁Hoot	-6222
▁kicks	-6223
▁raindr	-6224
▁snowmen	-6225
▁afterwards	-6226
?",	-6227
rig	-6228
rious	-6229
▁behaved	-6230
▁jackets	-6231
▁smarter	-6232
aker	-6233
▁wins	-6234
▁snuck	-6235
▁stroked	-6236
▁flapping	-6237
▁Pam	-6238
▁lun	-6239
▁squares	-6240
▁Sque	-6241
▁Binky	-6242
▁dances	-6243
▁objects	-6244
no	-6245
iled	-6246
sequ	-6247
▁cowb	-6248
▁shirts	-6249
Ch	-6250
▁impo	-6251
▁Mabel	-6252
▁annoy	-6253
▁unpacked	-6254
▁performan	-6255
▁impossible	-6256
ans	-6257
ishy	-6258
▁Todd	-6259
▁Bluey	-6260
▁tigers	-6261
▁consequ	-6262
▁stomped	-6263
oey	-6264
Next	-6265
bell	-6266
cope	-6267
▁acting	-6268
▁creamy	-6269
▁hallway	-6270
▁achieved	-6271
▁delivered	-6272
▁aren	-6273
▁choo	-6274
▁rule	-6275
ronaut	-6276
▁tramp	-6277
▁artist	-6278
▁deserve	-6279
▁astronaut	-6280
▁materials	-6281
atur	-6282
▁noon	-6283
igning	-6284
▁Wally	-6285
▁noses	-6286
▁indeed	-6287
ccoon	-6288
obbie	-6289
▁pans	-6290
itched	-6291
▁chefs	-6292
▁temper	-6293
▁wouldnâ	-6294
▁ornaments	-6295
▁raindrops	-6296
▁Ash	-6297
▁rip	-6298
▁raccoon	-6299
Shh	-6300
▁Els	-6301
▁sibl	-6302
▁wraps	-6303
▁Frosty	-6304
▁pointy	-6305
▁needles	-6306
▁basement	-6307
▁siblings	-6308
▁scratches	-6309
▁complained	-6310
▁complaining	-6311
tuce	-6312
ility	-6313
ivity	-6314
▁Abbie	-6315
▁losing	-6316
▁lettuce	-6317
▁Princess	-6318
?'	-6319
▁hus	-6320
▁June	-6321
▁sale	-6322
▁Sadie	-6323
▁tempt	-6324
▁darker	-6325
▁drifted	-6326
▁scrubbed	-6327
▁trampoline	-6328
cl	-6329
oni	-6330
▁refu	-6331
▁burst	-6332
▁meals	-6333
▁passen	-6334
▁travelled	-6335
▁fluttering	-6336
weet	-6337
▁Cra	-6338
▁dads	-6339
ndpare	-6340
▁Martha	-6341
▁screws	-6342
▁teased	-6343
aren	-6344
rigued	-6345
▁puppies	-6346
▁experien	-6347
▁swimsuit	-6348
▁discussed	-6349
▁creativity	-6350
▁consequences	-6351
▁Po	-6352
▁chop	-6353
▁Thanks	-6354
▁forgets	-6355
▁neither	-6356
ekend	-6357
▁merry	-6358
▁stool	-6359
umbling	-6360
▁weekend	-6361
▁wrapping	-6362
œDo	-6363
▁coup	-6364
▁helpers	-6365
▁grandpare	-6366
▁stung	-6367
▁including	-6368
▁gracefully	-6369
▁performance	-6370
ades	-6371
œWow	-6372
▁fears	-6373
▁Goodbye	-6374
▁tiptoed	-6375
▁tunnels	-6376
ded	-6377
▁Li	-6378
▁mer	-6379
Great	-6380
▁avoid	-6381
▁stain	-6382
▁third	-6383
▁cuddly	-6384
▁dollars	-6385
▁enthusi	-6386
▁temperature	-6387
ept	-6388
▁wonâ	-6389
anging	-6390
▁Along	-6391
▁gross	-6392
▁source	-6393
▁enthusiasm	-6394
Today	-6395
itted	-6396
▁fact	-6397
▁hearing	-6398
▁separated	-6399
▁growls	-6400
▁neatly	-6401
immering	-6402
▁Although	-6403
▁coloring	-6404
▁handsome	-6405
▁shrinking	-6406
oke	-6407
▁Abi	-6408
œCome	-6409
▁limes	-6410
▁During	-6411
▁afford	-6412
▁couple	-6413
▁onions	-6414
▁husband	-6415
▁zipping	-6416
anes	-6417
atul	-6418
step	-6419
ueen	-6420
▁ech	-6421
river	-6422
▁chip	-6423
▁hides	-6424
▁Farmer	-6425
▁rising	-6426
▁rivers	-6427
▁snowfl	-6428
▁accomplishment	-6429
cus	-6430
Meow	-6431
uggles	-6432
▁cousin	-6433
▁slices	-6434
▁dollhouse	-6435
ky	-6436
ntil	-6437
▁Judy	-6438
▁bully	-6439
▁plans	-6440
▁swept	-6441
▁windy	-6442
▁beloved	-6443
▁grabbing	-6444
Ew	-6445
eal	-6446
int	-6447
choo	-6448
▁gri	-6449
▁beam	-6450
▁Janie	-6451
▁Patty	-6452
▁horiz	-6453
▁grassy	-6454
▁promises	-6455
▁peacefully	-6456
pr	-6457
hog	-6458
▁cor	-6459
▁Snuggles	-6460
▁blocking	-6461
▁rewarded	-6462
▁Bee	-6463
▁bows	-6464
▁nine	-6465
▁Amelia	-6466
▁thrown	-6467
▁horizon	-6468
▁batteries	-6469
▁sprinkled	-6470
weed	-6471
arshm	-6472
▁Davey	-6473
▁damage	-6474
▁players	-6475
▁willing	-6476
▁students	-6477
arshmallow	-6478
Have	-6479
▁todd	-6480
▁Those	-6481
▁among	-6482
▁dreamt	-6483
▁muscle	-6484
▁leaning	-6485
▁matters	-6486
▁neighbours	-6487
Oops	-6488
Whee	-6489
▁aud	-6490
▁pecked	-6491
▁recipe	-6492
▁darling	-6493
▁napkins	-6494
▁backwards	-6495
iece	-6496
▁tails	-6497
▁bodies	-6498
▁seconds	-6499
▁wishing	-6500
▁forgiven	-6501
▁wept	-6502
▁Since	-6503
▁hitting	-6504
▁seaweed	-6505
▁printing	-6506
▁decorating	-6507
œHi	-6508
▁hour	-6509
▁alien	-6510
▁heading	-6511
▁planning	-6512
▁dod	-6513
▁Tuna	-6514
▁prett	-6515
▁reass	-6516
▁buzzed	-6517
▁feeding	-6518
▁gobbled	-6519
▁praying	-6520
▁Birthday	-6521
▁starfish	-6522
the	-6523
▁Sim	-6524
œYouâ	-6525
▁center	-6526
▁concer	-6527
▁triangles	-6528
▁gasp	-6529
▁repa	-6530
▁Nobody	-6531
▁dancers	-6532
▁heavier	-6533
▁snuggle	-6534
▁rustling	-6535
Woof	-6536
▁pops	-6537
▁drawn	-6538
▁forks	-6539
▁Listen	-6540
▁Mickey	-6541
▁prettier	-6542
▁repaired	-6543
▁warnings	-6544
▁requested	-6545
▁surroundings	-6546
wk	-6547
▁Sun	-6548
▁det	-6549
▁uns	-6550
▁spong	-6551
▁streets	-6552
▁designed	-6553
▁hedgehog	-6554
eds	-6555
ados	-6556
▁arr	-6557
▁die	-6558
▁twice	-6559
▁slower	-6560
▁treehouse	-6561
▁touc	-6562
▁woof	-6563
▁plain	-6564
▁Stella	-6565
▁poster	-6566
▁wiping	-6567
▁magician	-6568
Le	-6569
fus	-6570
arrow	-6571
itude	-6572
▁Back	-6573
▁Boun	-6574
▁ache	-6575
▁hawk	-6576
▁lungs	-6577
▁slammed	-6578
▁vanilla	-6579
▁embarrass	-6580
fall	-6581
ippy	-6582
ongr	-6583
irrel	-6584
▁thud	-6585
▁hesitant	-6586
▁creations	-6587
▁intrigued	-6588
▁forgetting	-6589
▁marshmallow	-6590
▁superheroes	-6591
Time	-6592
ments	-6593
▁adult	-6594
▁ropes	-6595
▁counts	-6596
▁avocados	-6597
▁spoonful	-6598
▁sy	-6599
▁skunk	-6600
▁potion	-6601
ongratul	-6602
▁audience	-6603
▁Dr	-6604
▁Sc	-6605
▁Owl	-6606
▁wag	-6607
▁flas	-6608
▁nood	-6609
ausing	-6610
▁scamp	-6611
▁resisted	-6612
▁spreading	-6613
ably	-6614
▁focu	-6615
▁blast	-6616
▁geese	-6617
▁stands	-6618
▁toddler	-6619
▁breathed	-6620
Boo	-6621
Lila	-6622
▁Ang	-6623
ently	-6624
ition	-6625
▁pens	-6626
▁softer	-6627
▁sponge	-6628
▁swords	-6629
▁warmer	-6630
▁borrowed	-6631
▁familiar	-6632
yan	-6633
llen	-6634
▁san	-6635
▁joyful	-6636
▁Friends	-6637
▁presses	-6638
▁imagining	-6639
▁delivering	-6640
--	-6641
cake	-6642
▁Pippin	-6643
▁screwd	-6644
▁peppers	-6645
▁scraped	-6646
▁touches	-6647
ido	-6648
▁Eva	-6649
▁age	-6650
▁Stan	-6651
▁pours	-6652
▁throughout	-6653
endy	-6654
▁nibb	-6655
▁munch	-6656
▁honked	-6657
▁squeak	-6658
▁zebras	-6659
▁changing	-6660
▁mesmerized	-6661
▁firefighter	-6662
Yummy	-6663
▁baths	-6664
▁glued	-6665
▁polar	-6666
▁roars	-6667
▁shops	-6668
▁talks	-6669
▁wrink	-6670
▁sports	-6671
▁focused	-6672
▁remembering	-6673
▁screwdriver	-6674
opsy	-6675
▁sank	-6676
▁Momma	-6677
▁corners	-6678
▁dropping	-6679
▁whispers	-6680
▁curiously	-6681
▁nur	-6682
aster	-6683
▁least	-6684
▁lifts	-6685
▁swall	-6686
▁swallowed	-6687
ael	-6688
▁Fido	-6689
▁Only	-6690
▁puff	-6691
ichael	-6692
ounced	-6693
▁Maddy	-6694
▁mints	-6695
▁Granny	-6696
▁express	-6697
▁granted	-6698
▁blinking	-6699
▁Meg	-6700
▁Bessie	-6701
▁spices	-6702
▁spikes	-6703
▁Squeaky	-6704
▁hopeful	-6705
▁sailors	-6706
▁squishy	-6707
▁toaster	-6708
jo	-6709
arac	-6710
▁Elly	-6711
▁crew	-6712
▁peck	-6713
▁neare	-6714
▁Michael	-6715
▁postman	-6716
▁reflection	-6717
▁Take	-6718
▁cond	-6719
▁poss	-6720
▁feast	-6721
▁slips	-6722
Grandma	-6723
▁steady	-6724
▁pennies	-6725
▁Squirrel	-6726
▁necklaces	-6727
▁refreshing	-6728
ears	-6729
▁sniffs	-6730
▁tested	-6731
▁wobbled	-6732
▁grandparents	-6733
▁marshmallows	-6734
yes	-6735
▁oh	-6736
osen	-6737
▁Frog	-6738
▁rout	-6739
▁dived	-6740
▁wakes	-6741
▁chosen	-6742
▁shaped	-6743
▁oysters	-6744
▁sneezing	-6745
▁increased	-6746
Like	-6747
worm	-6748
▁Our	-6749
▁Dani	-6750
▁Stay	-6751
▁spins	-6752
▁flight	-6753
▁reason	-6754
▁sewing	-6755
▁greeted	-6756
vil	-6757
mates	-6758
▁Love	-6759
▁tiss	-6760
▁Birdy	-6761
▁Simon	-6762
▁aside	-6763
▁heroes	-6764
▁joining	-6765
▁rushing	-6766
▁behaving	-6767
otten	-6768
unched	-6769
attered	-6770
▁kittens	-6771
▁pigeons	-6772
Our	-6773
Some	-6774
ertain	-6775
▁swans	-6776
▁wiggle	-6777
fire	-6778
▁Spl	-6779
▁dip	-6780
▁occ	-6781
stick	-6782
years	-6783
▁defe	-6784
▁aimed	-6785
▁biting	-6786
▁puppet	-6787
▁tapped	-6788
▁dresser	-6789
▁playroom	-6790
lves	-6791
▁Louise	-6792
▁onward	-6793
▁plucked	-6794
▁appreciation	-6795
▁Fe	-6796
rect	-6797
vant	-6798
▁Baa	-6799
▁moo	-6800
▁Fire	-6801
▁Mina	-6802
▁trot	-6803
▁Thatâ	-6804
▁confl	-6805
▁wrigg	-6806
aracter	-6807
▁adults	-6808
▁rotten	-6809
▁sparks	-6810
▁sending	-6811
▁encourag	-6812
▁trembled	-6813
▁character	-6814
▁scampered	-6815
Fo	-6816
eezes	-6817
iment	-6818
▁explo	-6819
▁offic	-6820
▁scored	-6821
Lucy	-6822
meal	-6823
œNow	-6824
▁hops	-6825
▁spat	-6826
▁Wendy	-6827
▁warri	-6828
▁master	-6829
▁flavors	-6830
aven	-6831
▁bells	-6832
▁daring	-6833
▁guests	-6834
▁convers	-6835
▁drawers	-6836
▁waddled	-6837
▁panicked	-6838
▁strongest	-6839
while	-6840
▁pins	-6841
▁manag	-6842
▁rainy	-6843
▁amount	-6844
▁tossed	-6845
▁napping	-6846
▁oatmeal	-6847
▁stacked	-6848
▁worrying	-6849
▁performing	-6850
cky	-6851
rrr	-6852
œMy	-6853
▁Ana	-6854
▁coc	-6855
▁scen	-6856
▁proper	-6857
▁wobbly	-6858
▁causing	-6859
▁freedom	-6860
▁respected	-6861
▁sunflowers	-6862
Mine	-6863
▁Try	-6864
retty	-6865
▁Well	-6866
▁mate	-6867
▁Flopsy	-6868
▁angels	-6869
▁loading	-6870
▁noodles	-6871
▁seashells	-6872
..."	-6873
▁evil	-6874
▁gest	-6875
▁sadd	-6876
▁Janey	-6877
▁battle	-6878
▁correct	-6879
isc	-6880
▁prove	-6881
▁lessons	-6882
▁respond	-6883
▁gardener	-6884
▁stitches	-6885
ppies	-6886
▁craft	-6887
▁shrug	-6888
▁Ashley	-6889
▁cloudy	-6890
▁tables	-6891
▁unsure	-6892
▁Curious	-6893
▁doorway	-6894
▁cushions	-6895
▁Ga	-6896
▁Im	-6897
onna	-6898
▁Des	-6899
▁Joan	-6900
▁worn	-6901
▁faded	-6902
▁grows	-6903
▁leads	-6904
▁bravest	-6905
iley	-6906
œMom	-6907
▁rains	-6908
▁action	-6909
▁firmly	-6910
▁designs	-6911
▁firefly	-6912
▁crashing	-6913
▁duckling	-6914
▁frowning	-6915
▁watering	-6916
▁und	-6917
▁earn	-6918
▁surv	-6919
▁clues	-6920
▁coral	-6921
▁defin	-6922
▁sails	-6923
▁wider	-6924
▁Jackie	-6925
▁months	-6926
▁tissue	-6927
▁twisty	-6928
▁smallest	-6929
▁Yesterday	-6930
▁passengers	-6931
▁ais	-6932
▁Mean	-6933
▁cosy	-6934
▁pays	-6935
bbling	-6936
please	-6937
▁height	-6938
▁humans	-6939
▁behavior	-6940
▁politely	-6941
▁nervously	-6942
hew	-6943
▁Sof	-6944
▁bru	-6945
dress	-6946
▁Honey	-6947
▁Mouse	-6948
urprise	-6949
▁robber	-6950
▁overcome	-6951
▁streamers	-6952
▁encouraging	-6953
emma	-6954
child	-6955
onies	-6956
▁ties	-6957
▁belts	-6958
▁flown	-6959
▁drivers	-6960
▁playtime	-6961
▁surrendered	-6962
ening	-6963
▁Star	-6964
▁fleas	-6965
▁gonna	-6966
▁merma	-6967
▁nearly	-6968
▁yielded	-6969
▁pumpkins	-6970
▁definitely	-6971
▁grandchild	-6972
obo	-6973
▁ni	-6974
bird	-6975
iona	-6976
▁inj	-6977
Follow	-6978
undred	-6979
▁poppies	-6980
▁crossing	-6981
▁travelling	-6982
ody	-6983
▁yel	-6984
œWell	-6985
▁nuzz	-6986
▁tuck	-6987
▁Chris	-6988
▁Still	-6989
▁races	-6990
▁shady	-6991
▁thatâ	-6992
▁laying	-6993
alloween	-6994
▁blocked	-6995
▁lifting	-6996
▁shovels	-6997
▁ignoring	-6998
▁Meanwhile	-6999
▁performed	-7000
▁quarreling	-7001
Beep	-7002
athy	-7003
▁Bow	-7004
▁Bong	-7005
▁ease	-7006
▁suits	-7007
ientist	-7008
▁commun	-7009
▁wobble	-7010
▁yelped	-7011
antastic	-7012
▁results	-7013
▁symbols	-7014
▁brushing	-7015
▁campfire	-7016
▁twinkled	-7017
▁scientist	-7018
▁suggestion	-7019
rey	-7020
upt	-7021
issa	-7022
lets	-7023
Watch	-7024
eling	-7025
ibbit	-7026
roken	-7027
▁reun	-7028
▁leapt	-7029
▁shown	-7030
▁scurry	-7031
▁Halloween	-7032
acles	-7033
▁pound	-7034
▁colder	-7035
▁ponies	-7036
▁quieter	-7037
▁appreciated	-7038
fly	-7039
▁bless	-7040
▁fills	-7041
▁final	-7042
ighting	-7043
▁fishes	-7044
▁thorns	-7045
▁cobwebs	-7046
▁hairdress	-7047
▁squeezing	-7048
▁waterfall	-7049
▁snowflakes	-7050
▁Fu	-7051
▁Jax	-7052
▁Eliz	-7053
▁Bongo	-7054
▁Fiona	-7055
▁Pippa	-7056
▁edges	-7057
▁Pepper	-7058
▁grandd	-7059
▁officers	-7060
▁reversed	-7061
▁tricycle	-7062
▁fantastic	-7063
▁preparing	-7064
▁punishment	-7065
▁surprising	-7066
Sue	-7067
▁Patch	-7068
▁anger	-7069
▁genie	-7070
▁paths	-7071
▁chopped	-7072
▁finishing	-7073
▁passports	-7074
ooky	-7075
Listen	-7076
▁loops	-7077
▁occas	-7078
▁Despite	-7079
▁burying	-7080
▁handing	-7081
▁tighter	-7082
▁suffered	-7083
▁paintbrush	-7084
▁hairdresser	-7085
▁unw	-7086
▁sever	-7087
▁braver	-7088
▁echoed	-7089
▁Snowman	-7090
▁giggles	-7091
▁healing	-7092
▁slither	-7093
▁bandages	-7094
▁distract	-7095
▁reminding	-7096
▁disturbing	-7097
Bun	-7098
TMd	-7099
ppa	-7100
▁gap	-7101
▁Izzy	-7102
laying	-7103
▁tying	-7104
▁Daniel	-7105
▁Because	-7106
▁forests	-7107
▁several	-7108
▁surfing	-7109
▁smelling	-7110
▁sniffing	-7111
▁surfboard	-7112
rup	-7113
cent	-7114
▁Ali	-7115
▁fits	-7116
œWhere	-7117
▁Green	-7118
▁notes	-7119
uackers	-7120
▁collap	-7121
▁baskets	-7122
▁certain	-7123
▁cleaner	-7124
▁connected	-7125
œIf	-7126
rier	-7127
▁Cle	-7128
▁sou	-7129
▁rays	-7130
▁risks	-7131
▁snort	-7132
▁spits	-7133
▁syrup	-7134
▁tipped	-7135
▁licking	-7136
▁conflict	-7137
▁congratul	-7138
ushed	-7139
▁coug	-7140
iscuit	-7141
▁Sofia	-7142
▁maker	-7143
▁Froggy	-7144
▁Pretty	-7145
▁seller	-7146
▁cottage	-7147
▁hundred	-7148
▁puzzled	-7149
▁travels	-7150
▁packages	-7151
▁stopping	-7152
▁sweetest	-7153
evin	-7154
vroom	-7155
▁Ally	-7156
▁purr	-7157
broken	-7158
▁conqu	-7159
▁drown	-7160
▁ships	-7161
▁magnif	-7162
▁spooky	-7163
▁efforts	-7164
▁squeaked	-7165
▁believing	-7166
▁breathing	-7167
▁examining	-7168
ca	-7169
erm	-7170
œOf	-7171
bage	-7172
œBut	-7173
▁Ava	-7174
athan	-7175
œOkay	-7176
▁mailed	-7177
▁cuddles	-7178
▁garbage	-7179
Jo	-7180
▁Din	-7181
▁prob	-7182
▁frowns	-7183
Surprise	-7184
▁lending	-7185
▁probably	-7186
▁slipping	-7187
▁suffering	-7188
▁whispering	-7189
Wh	-7190
asty	-7191
rian	-7192
▁elf	-7193
ading	-7194
inger	-7195
▁shoo	-7196
▁Marie	-7197
▁Start	-7198
▁buses	-7199
▁tubes	-7200
▁Mother	-7201
▁address	-7202
▁mermaid	-7203
▁inchworm	-7204
cher	-7205
line	-7206
onse	-7207
inkle	-7208
▁Jean	-7209
▁lent	-7210
isions	-7211
▁guide	-7212
▁spells	-7213
▁Feeling	-7214
▁arranged	-7215
▁planting	-7216
▁response	-7217
▁thoughts	-7218
▁bothering	-7219
▁repeating	-7220
?!"	-7221
mbers	-7222
▁Okay	-7223
▁dump	-7224
▁gears	-7225
▁charge	-7226
▁except	-7227
▁sharks	-7228
▁tablet	-7229
▁gesture	-7230
▁humming	-7231
▁masterp	-7232
▁members	-7233
▁trotted	-7234
▁forgiving	-7235
but	-7236
▁Any	-7237
found	-7238
inted	-7239
▁fins	-7240
▁grip	-7241
▁coach	-7242
▁sewed	-7243
▁damaged	-7244
▁luckily	-7245
▁customers	-7246
▁responsib	-7247
bba	-7248
▁til	-7249
utter	-7250
▁Nana	-7251
▁Barry	-7252
▁Holly	-7253
▁Megan	-7254
▁Peggy	-7255
▁goodby	-7256
▁rather	-7257
▁within	-7258
▁driveway	-7259
▁explorer	-7260
▁decisions	-7261
▁supported	-7262
▁instruments	-7263
€,	-7264
▁Ju	-7265
▁Ty	-7266
antha	-7267
▁lies	-7268
▁Angel	-7269
▁Peppa	-7270
▁whose	-7271
▁cotton	-7272
▁annoyed	-7273
▁wasting	-7274
▁goodbyes	-7275
▁chocolates	-7276
▁Pau	-7277
▁Fuzzy	-7278
▁Satur	-7279
▁antic	-7280
▁knots	-7281
▁weeds	-7282
▁Maddie	-7283
▁Splash	-7284
▁Stitch	-7285
▁nurses	-7286
▁pupils	-7287
▁rotting	-7288
▁soaking	-7289
▁warrior	-7290
▁Fighting	-7291
▁Saturday	-7292
▁reunited	-7293
▁vehicles	-7294
▁accomplished	-7295
Bob	-7296
Get	-7297
▁Ph	-7298
ails	-7299
▁Helen	-7300
▁reapp	-7301
▁teles	-7302
▁calmly	-7303
▁cheers	-7304
▁novels	-7305
▁robots	-7306
▁dangers	-7307
▁although	-7308
▁Excitedly	-7309
▁telescope	-7310
▁understands	-7311
acle	-7312
ilda	-7313
▁mood	-7314
▁Maisy	-7315
▁elbow	-7316
▁focus	-7317
▁stomp	-7318
▁sweat	-7319
▁tweet	-7320
▁cowboy	-7321
▁despite	-7322
▁stumble	-7323
▁Samantha	-7324
▁material	-7325
▁newfound	-7326
▁discussing	-7327
mies	-7328
asers	-7329
steps	-7330
▁peas	-7331
▁rescu	-7332
▁wisely	-7333
▁twisting	-7334
▁permitted	-7335
▁heartbroken	-7336
▁conversation	-7337
▁swo	-7338
ooking	-7339
▁buddy	-7340
▁crowns	-7341
▁spills	-7342
▁tidied	-7343
▁changes	-7344
▁belongings	-7345
▁classmates	-7346
▁Pu	-7347
crow	-7348
dding	-7349
▁bits	-7350
▁darl	-7351
ugging	-7352
▁awoke	-7353
▁refuse	-7354
▁wealth	-7355
▁swollen	-7356
▁crystals	-7357
▁darlings	-7358
▁explains	-7359
▁guessing	-7360
▁teachers	-7361
▁whistles	-7362
▁footsteps	-7363
▁reassured	-7364
▁masterpiece	-7365
rie	-7366
iens	-7367
wise	-7368
▁aim	-7369
▁tar	-7370
▁Lina	-7371
▁decl	-7372
▁vegg	-7373
perate	-7374
▁Jonny	-7375
œPlease	-7376
▁aliens	-7377
▁peeled	-7378
▁Frankie	-7379
▁Outside	-7380
▁prayers	-7381
▁student	-7382
▁insisting	-7383
▁Sk	-7384
Take	-7385
ammy	-7386
ufus	-7387
▁Mae	-7388
▁dot	-7389
▁rin	-7390
mered	-7391
▁germ	-7392
▁Bubba	-7393
▁nasty	-7394
▁scent	-7395
▁vines	-7396
▁figures	-7397
▁nibbled	-7398
▁speeding	-7399
▁bracelets	-7400
▁sill	-7401
▁vibr	-7402
▁spies	-7403
▁Seeing	-7404
▁nibble	-7405
▁encount	-7406
▁flipped	-7407
▁solving	-7408
▁toolbox	-7409
▁seagulls	-7410
▁troubles	-7411
aa	-7412
whe	-7413
rest	-7414
▁Elsa	-7415
▁emer	-7416
▁form	-7417
▁Other	-7418
▁Tiger	-7419
Alright	-7420
▁chilly	-7421
▁stored	-7422
▁target	-7423
▁toward	-7424
▁untied	-7425
▁artwork	-7426
▁treated	-7427
▁business	-7428
▁comforting	-7429
▁beautifully	-7430
aby	-7431
chy	-7432
lor	-7433
sol	-7434
ider	-7435
order	-7436
▁afar	-7437
▁exch	-7438
▁Paula	-7439
▁taped	-7440
▁survive	-7441
▁birdhouse	-7442
▁exercises	-7443
▁congratulated	-7444
▁granddaughter	-7445
▁unfortunately	-7446
idey	-7447
what	-7448
▁Win	-7449
Little	-7450
▁Flora	-7451
▁aware	-7452
▁marve	-7453
▁posit	-7454
▁banged	-7455
▁simply	-7456
▁delayed	-7457
▁honking	-7458
▁servant	-7459
▁statues	-7460
▁veggies	-7461
Goodnight	-7462
▁inspired	-7463
▁mosquitoes	-7464
Boys	-7465
oger	-7466
▁Lion	-7467
▁rats	-7468
▁force	-7469
▁kings	-7470
▁sweaty	-7471
five	-7472
▁Liam	-7473
▁Ping	-7474
Always	-7475
ighing	-7476
▁trans	-7477
▁Spidey	-7478
▁gazing	-7479
▁wounds	-7480
▁turtles	-7481
▁Startled	-7482
▁activity	-7483
▁squished	-7484
▁thanking	-7485
sm	-7486
pen	-7487
ecca	-7488
gain	-7489
▁Spe	-7490
▁rely	-7491
▁loses	-7492
▁untie	-7493
▁manners	-7494
▁tapping	-7495
▁apologised	-7496
Cl	-7497
▁Se	-7498
ipes	-7499
▁dep	-7500
▁spy	-7501
elvet	-7502
▁toss	-7503
▁foxes	-7504
▁joins	-7505
▁scram	-7506
▁sweep	-7507
▁beeped	-7508
▁labels	-7509
▁emerged	-7510
▁smashed	-7511
▁scurrying	-7512
we	-7513
œThe	-7514
onnie	-7515
orter	-7516
▁Dory	-7517
▁curl	-7518
▁jars	-7519
▁Tessa	-7520
▁flaps	-7521
▁oppos	-7522
▁bitten	-7523
▁convin	-7524
▁ghosts	-7525
▁pandas	-7526
▁shrunk	-7527
▁twenty	-7528
▁warmly	-7529
▁concert	-7530
▁pleaded	-7531
▁purpose	-7532
▁correctly	-7533
▁presented	-7534
ivia	-7535
▁Alf	-7536
▁hen	-7537
▁Ever	-7538
▁sped	-7539
▁aisle	-7540
▁squaw	-7541
▁stall	-7542
▁tires	-7543
▁Ginger	-7544
▁Freddie	-7545
▁anticip	-7546
▁swaying	-7547
▁dressing	-7548
▁wrinkled	-7549
▁encouragement	-7550
elie	-7551
▁Dog	-7552
▁bea	-7553
▁jud	-7554
ortun	-7555
▁Nora	-7556
ummies	-7557
▁Becky	-7558
▁nests	-7559
▁prick	-7560
▁rowed	-7561
▁transf	-7562
▁nearest	-7563
▁opportun	-7564
▁trusting	-7565
▁magazines	-7566
▁glittering	-7567
ats	-7568
▁Sw	-7569
▁Cara	-7570
▁Step	-7571
▁ramp	-7572
▁type	-7573
▁Brian	-7574
▁Terry	-7575
▁inter	-7576
▁otters	-7577
▁wiggly	-7578
▁cleared	-7579
▁nuzzled	-7580
▁pedaled	-7581
▁picnics	-7582
▁tasting	-7583
▁opposite	-7584
▁rescuing	-7585
œA	-7586
ddie	-7587
roll	-7588
œHey	-7589
▁loc	-7590
▁sav	-7591
Every	-7592
Leave	-7593
▁adds	-7594
▁gall	-7595
▁blond	-7596
▁girlâ	-7597
▁Spring	-7598
▁cocoon	-7599
▁swayed	-7600
▁swimmer	-7601
▁covering	-7602
▁declared	-7603
▁uniforms	-7604
▁displayed	-7605
▁scarecrow	-7606
▁shimmering	-7607
▁windowsill	-7608
▁anticipation	-7609
mo	-7610
its	-7611
amma	-7612
rily	-7613
ators	-7614
▁Hope	-7615
▁Jojo	-7616
father	-7617
idence	-7618
screen	-7619
▁dodged	-7620
▁visits	-7621
▁lipstick	-7622
▁designing	-7623
acy	-7624
▁Sl	-7625
▁hoo	-7626
▁Elle	-7627
▁disc	-7628
▁ends	-7629
▁purrs	-7630
▁Shelly	-7631
▁sadder	-7632
▁beating	-7633
▁attacked	-7634
▁doorbell	-7635
▁collapsed	-7636
▁scrambled	-7637
▁discoveries	-7638
munk	-7639
▁Man	-7640
manda	-7641
▁Gret	-7642
▁Poor	-7643
▁Sand	-7644
▁Time	-7645
▁peep	-7646
▁snug	-7647
illiam	-7648
▁flick	-7649
▁flips	-7650
▁joked	-7651
▁cracks	-7652
▁images	-7653
▁sheets	-7654
▁manager	-7655
▁routine	-7656
▁tumbled	-7657
▁backpacks	-7658
▁decoration	-7659
▁forgiveness	-7660
Fl	-7661
pit	-7662
▁Fort	-7663
▁swap	-7664
▁whoo	-7665
romise	-7666
▁Eddie	-7667
▁Nancy	-7668
▁icing	-7669
▁Amanda	-7670
▁Monkey	-7671
▁failed	-7672
ordinary	-7673
▁Welcome	-7674
▁bathing	-7675
▁tummies	-7676
▁sunscreen	-7677
▁generosity	-7678
▁toothbrush	-7679
▁experienced	-7680
Dear	-7681
usty	-7682
▁Luc	-7683
▁yum	-7684
water	-7685
▁JoJo	-7686
▁beeh	-7687
▁grat	-7688
▁ting	-7689
▁Crabby	-7690
▁Olivia	-7691
▁obeyed	-7692
▁sprout	-7693
▁goodies	-7694
▁singers	-7695
▁encountered	-7696
da	-7697
oc	-7698
aus	-7699
empt	-7700
▁Pin	-7701
▁Wil	-7702
▁conv	-7703
▁lapt	-7704
▁sens	-7705
boards	-7706
▁badger	-7707
▁heaven	-7708
▁William	-7709
▁nodding	-7710
▁sternly	-7711
▁customer	-7712
▁dripping	-7713
▁gratitude	-7714
▁admiration	-7715
▁astronauts	-7716
▁Fortunately	-7717
uel	-7718
▁amu	-7719
ative	-7720
ument	-7721
▁Phil	-7722
▁minds	-7723
▁shall	-7724
▁snaps	-7725
ilities	-7726
▁crawls	-7727
▁inches	-7728
▁slowed	-7729
▁Melissa	-7730
▁attempt	-7731
▁convince	-7732
▁brightest	-7733
▁grandfather	-7734
erk	-7735
elle	-7736
lied	-7737
œSee	-7738
▁Beh	-7739
▁Flo	-7740
ddles	-7741
▁Alan	-7742
▁Youâ	-7743
▁Jason	-7744
▁blown	-7745
▁meows	-7746
▁robin	-7747
▁Bounce	-7748
▁floats	-7749
▁Jonathan	-7750
▁chipmunk	-7751
▁scooters	-7752
▁visitors	-7753
▁applauding	-7754
▁extraordinary	-7755
So	-7756
cie	-7757
lph	-7758
udo	-7759
ulp	-7760
ocky	-7761
▁Min	-7762
ances	-7763
▁diso	-7764
▁flip	-7765
▁stew	-7766
udolph	-7767
▁Gabby	-7768
▁films	-7769
▁fires	-7770
▁matey	-7771
▁sculp	-7772
▁soapy	-7773
▁explor	-7774
▁laptop	-7775
▁orders	-7776
▁parted	-7777
▁flashed	-7778
▁lowered	-7779
▁million	-7780
▁grandson	-7781
▁recorder	-7782
▁umbrellas	-7783
bee	-7784
▁Say	-7785
œGood	-7786
▁priz	-7787
▁shin	-7788
▁germs	-7789
▁goats	-7790
▁Taking	-7791
▁member	-7792
▁scolds	-7793
▁breaths	-7794
▁drowned	-7795
▁meowing	-7796
▁reminds	-7797
▁tidying	-7798
▁checkout	-7799
▁diamonds	-7800
lyn	-7801
Bang	-7802
▁Pen	-7803
▁Sir	-7804
angle	-7805
ctric	-7806
▁fond	-7807
▁teams	-7808
▁Speedy	-7809
▁beaming	-7810
▁bounces	-7811
▁conduct	-7812
▁shorter	-7813
▁applause	-7814
▁munching	-7815
▁quacking	-7816
▁switched	-7817
▁responded	-7818
▁instrument	-7819
▁scratching	-7820
Too	-7821
str	-7822
▁Fel	-7823
▁clerk	-7824
▁forts	-7825
▁groan	-7826
▁unwra	-7827
▁Joanna	-7828
▁clicked	-7829
▁connect	-7830
▁weapons	-7831
▁steering	-7832
▁supplied	-7833
▁tentacles	-7834
▁increasing	-7835
▁questioned	-7836
rink	-7837
▁que	-7838
belle	-7839
▁Hold	-7840
▁cons	-7841
▁sets	-7842
▁cares	-7843
▁dears	-7844
▁scrub	-7845
▁Behind	-7846
▁carries	-7847
▁bothered	-7848
▁flashing	-7849
▁rumbling	-7850
▁terrified	-7851
▁characters	-7852
Arrr	-7853
anie	-7854
▁fif	-7855
storm	-7856
œSure	-7857
▁Duck	-7858
▁scri	-7859
▁zooms	-7860
▁tilted	-7861
▁cheated	-7862
▁petting	-7863
▁realizes	-7864
▁conductor	-7865
off	-7866
aint	-7867
▁Dra	-7868
▁Moo	-7869
▁hood	-7870
▁unlo	-7871
▁Chick	-7872
▁Lenny	-7873
▁awful	-7874
▁beaver	-7875
▁floors	-7876
▁microw	-7877
chievous	-7878
▁forgives	-7879
▁convinced	-7880
▁prevented	-7881
▁confidence	-7882
▁mischievous	-7883
uno	-7884
centr	-7885
▁soot	-7886
▁Claus	-7887
▁Eliza	-7888
▁Tyler	-7889
▁court	-7890
▁flock	-7891
▁haven	-7892
▁Bobbie	-7893
▁models	-7894
ironment	-7895
▁beehive	-7896
▁concentr	-7897
▁electric	-7898
▁knocking	-7899
▁offering	-7900
▁conquered	-7901
▁microwave	-7902
▁movements	-7903
▁environment	-7904
Mr	-7905
On	-7906
lt	-7907
All	-7908
ouqu	-7909
ship	-7910
œWho	-7911
▁Bang	-7912
▁Gary	-7913
▁tops	-7914
▁bouqu	-7915
▁seals	-7916
idnight	-7917
▁queens	-7918
▁shorts	-7919
▁strips	-7920
▁twists	-7921
▁washes	-7922
▁Twinkle	-7923
▁hardest	-7924
▁hunters	-7925
▁robbers	-7926
▁testing	-7927
▁sprinkle	-7928
▁stretches	-7929
▁destroying	-7930
now	-7931
Choo	-7932
Nice	-7933
Stay	-7934
immy	-7935
▁ket	-7936
udged	-7937
▁deed	-7938
▁puck	-7939
▁tips	-7940
▁waded	-7941
▁common	-7942
▁sirens	-7943
▁Matilda	-7944
▁signing	-7945
▁paddling	-7946
▁youngest	-7947
▁container	-7948
▁envelopes	-7949
▁expecting	-7950
▁Gus	-7951
▁Peep	-7952
▁Stri	-7953
▁jobs	-7954
▁Again	-7955
▁strum	-7956
▁checks	-7957
▁expert	-7958
▁gallop	-7959
▁stamped	-7960
▁tickling	-7961
▁announced	-7962
▁observing	-7963
▁sculpture	-7964
▁disappoint	-7965
▁Ly	-7966
Letâ	-7967
lest	-7968
ooks	-7969
Molly	-7970
rough	-7971
elieve	-7972
▁Gemma	-7973
▁messes	-7974
▁stroke	-7975
▁Another	-7976
▁winding	-7977
▁argument	-7978
▁mattered	-7979
▁Annabelle	-7980
▁unpacking	-7981
bu	-7982
lers	-7983
otte	-7984
▁Har	-7985
Billy	-7986
▁Nell	-7987
▁teap	-7988
arable	-7989
earing	-7990
▁whisk	-7991
▁combed	-7992
▁shrank	-7993
▁Looking	-7994
▁clearly	-7995
▁cowboys	-7996
▁raising	-7997
▁tearing	-7998
▁grumbled	-7999
▁Charlotte	-8000
ware	-8001
▁tin	-8002
eople	-8003
▁Hank	-8004
▁Nice	-8005
uickly	-8006
▁Elsie	-8007
▁bride	-8008
flowers	-8009
▁Gracie	-8010
▁Martin	-8011
▁Sandra	-8012
▁compan	-8013
▁storms	-8014
▁surely	-8015
▁bouquet	-8016
▁buckled	-8017
▁cupcake	-8018
▁outfits	-8019
▁soundly	-8020
▁exploded	-8021
▁dragonfly	-8022
▁Immediately	-8023
▁experiences	-8024
▁exploration	-8025
TMve	-8026
otch	-8027
ended	-8028
▁Pick	-8029
œMaybe	-8030
▁salon	-8031
▁smelt	-8032
▁tests	-8033
▁nights	-8034
▁gardens	-8035
▁sincere	-8036
▁vibrant	-8037
▁relaxing	-8038
▁squeezes	-8039
▁imaginary	-8040
▁responsibility	-8041
oor	-8042
oss	-8043
▁''	-8044
▁hu	-8045
airy	-8046
ethos	-8047
▁Foxy	-8048
▁Muff	-8049
▁moat	-8050
▁self	-8051
▁zips	-8052
idents	-8053
▁Mamma	-8054
▁burnt	-8055
Someone	-8056
ittered	-8057
▁Auntie	-8058
▁active	-8059
▁pizzas	-8060
▁sprays	-8061
▁teapot	-8062
ccidents	-8063
▁disobey	-8064
▁leaking	-8065
▁possess	-8066
▁stethos	-8067
▁whoever	-8068
▁Midnight	-8069
▁checking	-8070
▁haircuts	-8071
▁behaviour	-8072
▁explaining	-8073
▁temptation	-8074
val	-8075
œOk	-8076
abra	-8077
bank	-8078
free	-8079
uggy	-8080
▁Bad	-8081
▁Ber	-8082
▁ill	-8083
anced	-8084
balls	-8085
▁Liza	-8086
▁papa	-8087
ippers	-8088
▁Bruno	-8089
▁Sleep	-8090
▁quilt	-8091
▁snowy	-8092
▁peeped	-8093
▁traded	-8094
▁Whoever	-8095
▁mommies	-8096
▁squeaky	-8097
▁swallow	-8098
▁occasion	-8099
▁overhead	-8100
▁pressing	-8101
▁companion	-8102
▁instantly	-8103
▁glimmering	-8104
yl	-8105
▁bond	-8106
▁cubs	-8107
▁rows	-8108
▁Finny	-8109
▁Grand	-8110
▁faith	-8111
▁burger	-8112
▁killed	-8113
▁cheaper	-8114
▁puppets	-8115
▁rewards	-8116
▁communic	-8117
▁wriggled	-8118
▁languages	-8119
▁crocodiles	-8120
▁expression	-8121
▁stethoscope	-8122
▁Isn	-8123
▁kit	-8124
igger	-8125
▁ouch	-8126
Fluffy	-8127
▁Allie	-8128
▁Tammy	-8129
▁erase	-8130
▁insep	-8131
▁	-8132
e	-8133
a	-8134
t	-8135
o	-8136
h	-8137
n	-8138
i	-8139
d	-8140
s	-8141
r	-8142
l	-8143
y	-8144
m	-8145
w	-8146
.	-8147
u	-8148
g	-8149
c	-8150
p	-8151
f	-8152
b	-8153
k	-8154
,	-8155
T	-8156
v	-8157
"	-8158
S	-8159
H	-8160
L	-8161
I	-8162
'	-8163
O	-8164
!	-8165
B	-8166
M	-8167
x	-8168
A	-8169
W	-8170
j	-8171
J	-8172
Y	-8173
?	-8174
z	-8175
D	-8176
â	-8177
€	-8178
E	-8179
F	-8180
q	-8181
C	-8182
N	-8183
G	-8184
P	-8185
-	-8186
œ	-8187
